/**
  ******************************************************************************
  * @file    cecnn_data_params.c
  * @author  AST Embedded Analytics Research Platform
  * @date    Sun Jun 16 21:36:44 2024
  * @brief   AI Tool Automatic Code Generator for Embedded NN computing
  ******************************************************************************
  * Copyright (c) 2024 STMicroelectronics.
  * All rights reserved.
  *
  * This software is licensed under terms that can be found in the LICENSE file
  * in the root directory of this software component.
  * If no LICENSE file comes with this software, it is provided AS-IS.
  ******************************************************************************
  */

#include "cecnn_data_params.h"


/**  Activations Section  ****************************************************/
ai_handle g_cecnn_activations_table[1 + 2] = {
  AI_HANDLE_PTR(AI_MAGIC_MARKER),
  AI_HANDLE_PTR(NULL),
  AI_HANDLE_PTR(AI_MAGIC_MARKER),
};




/**  Weights Section  ********************************************************/
AI_ALIGNED(32)
const ai_u64 s_cecnn_weights_array_u64[12373] = {
  0x3d179b4dbe7cc17bU, 0xbd334eb6bceb032dU, 0x3dd4d76cbd19313bU, 0xbe84fd2d3e40f91bU,
  0xbea3d91a3bccb710U, 0xbd63817abd845d27U, 0x3b42c75bbe313774U, 0xbe5e49eabe50fdaeU,
  0x3e5ff37bbe6bf9e5U, 0xbcf844cf3de2a327U, 0xbe2535033e5dccd2U, 0x3d33a098bcdf7987U,
  0x3e43e1aebd791ce4U, 0xbe53d36f3de9cf27U, 0xbe4cbb9bbe0281faU, 0x3dd2e64fbd01c580U,
  0xbcf8cd943e119c33U, 0xbe622261bdaa0811U, 0xbe91950f3e1a454bU, 0x3e3a780e3d372229U,
  0x3e5fafe9be71fcf3U, 0xbe040e0dbda907beU, 0x3e5a914b3e4610d8U, 0xbd5ea8c63cde15caU,
  0x3e4883ffbd898b44U, 0x3e46e3a0be87133cU, 0x3d435beb3d79c006U, 0x3dc168883d21a044U,
  0x3e7ca50a3e1425c8U, 0x3d20d608bde5b50cU, 0x3e307f90be76551dU, 0xbe54f4cabe0ea498U,
  0xbe42c5823ab63800U, 0x3e004c82be0cf060U, 0xbd82a690bd83c2a2U, 0x3dce30583d92e880U,
  0xbcc6cba8bdb8d864U, 0xbe465bd4bd8d4aecU, 0xbe3adae23e3c0f0aU, 0x3dd61a98be40ad8dU,
  0xbd7809103dede76cU, 0xbdb697a83df4aac8U, 0x3e89f242bdba839fU, 0xbe722e61bde0dc0cU,
  0x3a7022ed3e2d7b8eU, 0xbd184b56be2f6a8cU, 0xbe8eb1e13cafeb6aU, 0xbcc30dff3e08f48aU,
  0x3e00b5fabe7b966cU, 0x3e17812f3e84eb51U, 0xbe939cd9be2e1534U, 0x3e2142643d29d0e2U,
  0xbe2c61cc3d39f078U, 0x3bb8f3b73de8102cU, 0x3dee0b8f3dad49d0U, 0xbe6234e83d33ec28U,
  0x3e3030cebb9c6b80U, 0xbdd1e186bde7d764U, 0xbc89e6d03dbfaaccU, 0x3cea9460bd003270U,
  0xbd45125cbd3afbdcU, 0xbe2348be3e05ad16U, 0xbe384628bdd93524U, 0x3e0dbc32be4f4d40U,
  0x3e4ecadc3e05e47aU, 0xbe153f65be2148beU, 0x3e29cfccbde50c88U, 0xbe100e04be043d9eU,
  0x3d7882703cfbb500U, 0xbe34b0183df45584U, 0xbe684ee33dcc44d8U, 0xbc23c2823e0ee066U,
  0xbd5d26d93e767d6aU, 0xbe1257d8bd969bf0U, 0x3d5a8c9dbe24a656U, 0x3e27abf5be4a9439U,
  0x3bf38d0abe26f453U, 0x3e4e62163e1723b1U, 0x3ddbf32a3d69cde1U, 0xbe02cf4cbe2693b7U,
  0xbc7aa1323b93051cU, 0x3c39f6d5be33a556U, 0x3db206063d99d63dU, 0x3db8d0a53d63caa0U,
  0x3e82270ebde94dd9U, 0x3cd085db3ddb3facU, 0xbe9286563e560a48U, 0x3c97e87d3dc96c86U,
  0xbdeaa3ee3e8c690cU, 0xbe260c5fbdb8cb75U, 0xbd597e273de0461aU, 0xbd35a72c3df364bbU,
  0xbd2a4b37be6b3c8dU, 0x3d98668fbdfb668cU, 0x3ea236743dac2f9aU, 0x3dc68e013b6e413dU,
  0x3e6dbd793dd5fa93U, 0x3c2eda0dbe8cdb18U, 0xbe1e326abd404414U, 0x3c546d003bd503c0U,
  0xbe60cea73e398fc6U, 0xbe427500be7ccd1fU, 0xbe66f1cb3d40b420U, 0x3dce05483db929ecU,
  0xbd46a4d4bc7668f0U, 0x3d885d543e00c074U, 0x3e56becabbbdc260U, 0xbd821b283dbfe844U,
  0xbcd6a740b94e1800U, 0xbe274430bc8e84f0U, 0x3d5025f0bd26640cU, 0xbb94cd803caae710U,
  0x3e74eba2bd9cc077U, 0x3c2a1462bd8e5802U, 0x3c3780ffbe2e9360U, 0xbd78c7f63dd0a9aeU,
  0x3dd3e0c53dedfca8U, 0xbd87f70fbe44d4e2U, 0x3eb6e6343dc43237U, 0x3e38a0b1be7bd2d5U,
  0xbe442cf63d60355dU, 0x3dc65ed8bc7e2b4cU, 0xbe46f766bdde30a1U, 0x3d8fa2a13e59ab81U,
  0xbcb608ccbea07a9bU, 0x3e08a3fe3d828c74U, 0xbdea60dcbe1fbe17U, 0xbe0e7d113e4ef2c0U,
  0x3e85881f3dfc4a81U, 0xbe2a72ea3e4cd677U, 0xbe330ab43e082e27U, 0xbe8f613bbe80035cU,
  0x3e5e475c3e734486U, 0x3e2a772bbe629e1eU, 0x3e35325a3dbbf972U, 0xbde02338be96b986U,
  0x3e8fa097be51f227U, 0xbc5e67cb3e5af488U, 0x3d27651abe196161U, 0xbd811fdcbda1795dU,
  0xbe1453b43e252e48U, 0xbdc1b211bd3901a6U, 0xbdfba9a83da64351U, 0xbe936475be5d8fabU,
  0x3d6cd9773e2648fbU, 0xbdf5ec3c3e646888U, 0xbd52225d3e162426U, 0xbd0ac372bc3153a3U,
  0x3e05d1993e5f205dU, 0xbd03a34b3e121c56U, 0xbe3170a93da16a13U, 0xbe648bc23d88c237U,
  0xbe14021fbd2ed84fU, 0x3e8dfcaabe5d557fU, 0xbea43fdfbe956725U, 0xbbc06f22be48fb59U,
  0x3e2bdc643d8727c7U, 0xbe1aa8313ca645a6U, 0xbd506c4bbdf7a74fU, 0x3d8d7e12be0588e8U,
  0x3d8f88b93e2bda36U, 0x3e0dd53cbce411ceU, 0xbe8fb27cbe8f41e0U, 0x3e329b903e86058eU,
  0xbe997040bdac46d2U, 0xbe8b05973d855d26U, 0x3ea820143cc00cd5U, 0x3e2f0ba5be5471e6U,
  0x3e67f76a3e3ee390U, 0xbc759120be1e46abU, 0x3cc96480be0a8899U, 0x3b726e80be1e9f9eU,
  0xbddb9fcabe4d7c7eU, 0x3d587e283e7e6c82U, 0x3de4f9bc3ddc2ad8U, 0x3e339100bdcb1afaU,
  0xbe46ea78be81f654U, 0xbe8110aebe2c6294U, 0xbcf41770be807dc8U, 0x3d8e1c3cbe219445U,
  0x3e04a296be10ac3cU, 0xbdbc4788be599954U, 0xbe7fa95bbbcd979aU, 0xbd8a9e373e685f93U,
  0x3d014a643ca82b9dU, 0xbe85efa9be03b0fbU, 0x3e17306abdaf1b31U, 0xbc813aa23e70f46bU,
  0xbe2dd301bdf924e8U, 0xbda9c20abe413e35U, 0x3d91213bbe0cbb80U, 0x3e3b01eebe81e777U,
  0xbe335c50bdcbd9b4U, 0x3e1536af3da8dc0dU, 0x3e4425043e1c5f2cU, 0xbe85d15ebd3af434U,
  0xbd43296f3dd24ecbU, 0xbe51e7af3e639733U, 0xbe6ae60c3cc5f17eU, 0xbdaf552ebe40b8b2U,
  0x3e1f6edb3e6e310fU, 0xbe58681c3e6a1e60U, 0xbe7755a1bcd6d9fbU, 0xbd8b14aa3e19bf4bU,
  0x3e1c8e583e129672U, 0x3da2dd123de2fb72U, 0x3dcefc8cbe61696dU, 0xbde88d53be757419U,
  0xbe2aa660be7c1509U, 0xbe04a6c63e5d3d75U, 0x3e631184be4e8258U, 0x3e6633a5bdae654fU,
  0x3d1a184b3d68c97bU, 0xbcec92c13e06f738U, 0xbc772f343e0a0bcbU, 0x3e2ba7b63e456f13U,
  0x3d94e415be83aeddU, 0x3dccd7aabd6a130eU, 0xbe70ba14be68c4ccU, 0xbe4565cc3d8454a3U,
  0xbd9016f7be207dc7U, 0xbea225883d87b99eU, 0x3e111e953e88c482U, 0xbe84f2e93e4362bdU,
  0xbe3c8169bd40049bU, 0x3e158ab400000000U, 0xbbef6a9900000000U, 0xbeff19c1U,
  0x3d00b72f3cc4a0aeU, 0xbbe5499fbe73c9edU, 0xbc8a84dc00000000U, 0xbe9a4a25bc60cdf0U,
  0x420d92133cfcabd1U, 0x3ce4057541fcfb71U, 0x41fb201e41fcfb71U, 0x41fcfb713c1c09efU,
  0x3bac4db93b19b0f1U, 0x3bf217553df55679U, 0x41f9e82041fcfb71U, 0x3d73431741f94fa5U,
  0xbdb08418bf231939U, 0xbf8fbc2fbdb410a7U, 0x3d7b3679bd9b97c8U, 0xbacbf0b9bf61192fU,
  0xc005579fbfd55bf6U, 0xc0371fcfbe036c16U, 0xbdd24cb1be2f0f8cU, 0xbf006d2fbd97f942U,
  0xbcc95ab73dbaa5d0U, 0xbd5271333ec762eeU, 0xbe9113823edbc813U, 0xbedda2113e176dd3U,
  0x3ebf6b4f3ed17d73U, 0x3e8339513f673e09U, 0xbdef20ec3e5c6eaaU, 0x3dfc0c44bde3bce8U,
  0xbd0762fb3ca2a8bbU, 0xbe5434163f06e586U, 0x3e359595bcfb82c9U, 0xbee37ea53ea4c7c9U,
  0xbd0585e5be9f447eU, 0xbccb178b3e773451U, 0xbd67e5873ec4c5d5U, 0x3ed189d33ee12648U,
  0x3ee3f4503da2dc29U, 0x3d064137beb8d50dU, 0xbe77cffabe4dd6fcU, 0xbeb25e57bd163e04U,
  0xbe8bb8aebd8eeae0U, 0xbef793963d2ebc10U, 0xbba3a27b3ecfa42aU, 0xbe071de33e88a7baU,
  0x3cd76bfcbf1f55a8U, 0xbe7c06e4be141291U, 0xbd61df583bf9dc4aU, 0xbd636c5bbec493f9U,
  0x3e8b220f3d02b075U, 0xbe2dadffbe43af18U, 0xbe9af3b33e30daabU, 0xbe0035d8be23d883U,
  0xbe88f8db3e533f18U, 0xbecf67773e234270U, 0x3df2b732bda8d5d2U, 0x3ea37e31bef33c8bU,
  0xbf24bfa4bf05614dU, 0xbe7c5cf4bf116ab6U, 0xbd5cdb2fbe5e397aU, 0xbe8a537f3e95fea7U,
  0x3eab11133e1c87a1U, 0x3defb49cbe134371U, 0xbe62bbd4be6ee062U, 0xbe4737483e282e77U,
  0xbf033798be83caddU, 0xbf0eabd2bee8a749U, 0x3f0f49653e8d9b79U, 0xbe222e00be476d75U,
  0x3e66aebfbeeb6650U, 0xbe468723bd94b8c9U, 0x3eddfb34bedbd7e9U, 0x3ef79ecabed0eac1U,
  0xbe57ecb5bdbec0b0U, 0xbea7e8b0bf1bbd2bU, 0xbe3af085bea41db8U, 0xbed51bd0bedcfe51U,
  0xbeca11563e72b595U, 0xbce8b042be8e9dbfU, 0x3ed199353c93a1dfU, 0x3e01cd91be97a24eU,
  0xbe975346bf0a9b70U, 0xbd23ff64bda9d083U, 0x3db5aa2bbe99e8a8U, 0xbed48aaebefa3d67U,
  0x3e24f8ce3e837b9bU, 0xbde214803dddff71U, 0xbc6cb31dbe26a4e3U, 0xbe5b798bbde3415fU,
  0xbd3f6f753f16bccaU, 0x3eaf230dbd98b8b9U, 0x3eaa0bc93e6069c3U, 0xbe71daf03e32201aU,
  0xbe364ced3e093d06U, 0x3dd9050b3cc0d784U, 0x3e9e6dbebe0a829eU, 0x3e1c71bd3c605324U,
  0x3dca10cdbe157313U, 0x3ed291a5bf383236U, 0x3ea268b3be608296U, 0x3defd3f0bd58da61U,
  0x3e8986bcbe3ff1efU, 0x3ea15f32beb122efU, 0x3eab517f3ebc4568U, 0xbe9fd2df3e8962b5U,
  0x3e39ea0f3d4cabbcU, 0xbe89841ebe92a77aU, 0x3ec3d4643d9bc73eU, 0x3e8be9863ebe3eefU,
  0x3d2caee7be9a5082U, 0xbf17336ebd28da88U, 0x3e1083a6be7da3c2U, 0x3e3050c0bee8500dU,
  0xbf1a8838bf0654f0U, 0x3da94e5cbec56325U, 0xbe2b6e2f3e6b8695U, 0xbdcaa682bedf773dU,
  0x3ef2fbe1b9eb5928U, 0xbd957f9c3c2fcb59U, 0x3e9a169abe1a60a7U, 0x3e4c125d3ec206e4U,
  0x3e7b51733e6d96f6U, 0x3e207090be8772a1U, 0xbedc2976bea8215bU, 0xbe705714be8a07f9U,
  0xbe2e0cab3e8bebecU, 0x3f2d51243e940594U, 0xbec78ac33e784102U, 0x3eb0e54cbe500db1U,
  0xbe42d18d3dc3deeeU, 0xbef918ac3d97c83eU, 0xbea93c853ec057e8U, 0x3b2ea1bf3cf19a78U,
  0x3dc119d83e00ce2fU, 0xbd0fb2a23e70cc01U, 0x3eafb6023eae3724U, 0x3ea676f3bddca6bbU,
  0xbf230365bf0948deU, 0xbee4ef373d3e2350U, 0x3e355f903e92fc0cU, 0x3d7ad65aba989610U,
  0x3e8510adbc543b55U, 0x3dce395cbcbcf807U, 0x3e808b9cbed71638U, 0x3e3e3ba0bd8d8c59U,
  0xbe1ec4bdbe713409U, 0x3ed13068becdae01U, 0xbed7b6c53a7617e6U, 0x3e04d9083ea800b4U,
  0xbd98f94dbc798b5aU, 0x3e0924aebd46fd66U, 0xbe2289453ddaf05cU, 0x3e0267563e2d0568U,
  0xbd3325543cbab104U, 0x3e0cc939bccb95f3U, 0xbbd9c1e73d18e12eU, 0xbc9566c1bca7da29U,
  0x3da60f98beaac731U, 0x3c118653be87d657U, 0xbdc5acb0be9d0698U, 0x3dc4e4fbbeb260d1U,
  0x3eadcf0f3e27bed7U, 0xbf05e982bec1068dU, 0x3cd16a59be9bad4eU, 0x3e9557d83e73f52fU,
  0x3ddded213ebad022U, 0xbe124981beadd85dU, 0xbe04f24fbefa35b7U, 0xbf0b0862bef73f4fU,
  0x3e70e01a3e67f6e4U, 0xbd7acd4f3eb8d050U, 0x3e8418f23e0af611U, 0x3ee856d4be09bdb1U,
  0xbdcf80f9bc97b304U, 0x3c8e5b983e514574U, 0x3ea67ba5bebcc6d7U, 0xbed83c5bbeb9e18eU,
  0xbf0afdeabee178a0U, 0x3e99a88a3d6579afU, 0xbf195315bf290a76U, 0xbdef39fd3e077b40U,
  0xbeabcbe8be218655U, 0xbe52e7d83dacaa5cU, 0xbe4fcc98bef9ee30U, 0x3e5fd4583e38207cU,
  0xbe4539b23c4af826U, 0x3e8178b2be35a9b0U, 0x3e9125bbbec75e4eU, 0x3da4b202bebee608U,
  0xbe96c825be966a89U, 0xbe0e0e3dbca337b1U, 0xbf127610bee07e9eU, 0xbf02869cbea71054U,
  0xbded45503ea17ddaU, 0xbdc15c5bbef720d0U, 0xbcc9fa623dda32b4U, 0xbea0e6423e306959U,
  0x3d8a049bbd05839aU, 0xbeab51ef3ef1e78dU, 0xbcb57ff13ea5d12eU, 0xbe65744d3e5cc99bU,
  0xbe7efe60be961d47U, 0x3ea462173cb7edf7U, 0xbe3b45833d25f002U, 0xbf140af4be31c5ddU,
  0x3ecd64c53ebaec85U, 0x3ec249e23eae1dd9U, 0x3d9bc122be2b1f3eU, 0x3e46e3953e286e58U,
  0x3e4c0a023c4b6ce7U, 0x3e5d278cbe94421dU, 0x3ee308383c81cb17U, 0xbe9cbe093e656862U,
  0x3e91d4fbbd8f2f99U, 0x3e0813753e49585aU, 0x3daab5c83c228a89U, 0xbd136326bea50ec0U,
  0xbcd2b1cb3e8b71e8U, 0xbe2cc8423dbc26d2U, 0xbe407feb3daf0266U, 0x3d1302c33e05822eU,
  0x3d9137d63ea8bc9cU, 0x3e3c1fa43ed23109U, 0x3d1709463d57597bU, 0xbeb4640b3ea64795U,
  0xbefdd8a3be4840e3U, 0x3e1618e6bdfbc69aU, 0x3efad1a13e8a8fbbU, 0x3e1301b93e826a11U,
  0x3e5cc2c13df2cb47U, 0x3e4e7408be870725U, 0x3f014b0d3e30225cU, 0x3e8666c03ec45c5fU,
  0xbe7ff95bbcf5de29U, 0x3de491aabe97d57cU, 0x3ebad086bed43782U, 0xbca6d6e5be8507a3U,
  0x3e917729be90dfb0U, 0xbf0a4c5bbec0e8ecU, 0xbecf03a4bda4c72bU, 0xbf1111babef95310U,
  0xbd8bfe2b3ecbb359U, 0xbf12a31b3eb8dc26U, 0xbec6c67e3ebea2f4U, 0x3eb58d0cbede38cdU,
  0x3e47632dbd327875U, 0xbed2bcbc3e8212b3U, 0x3e5b9de73eb5003cU, 0xbe94300ebf112681U,
  0x3e42d7603edf9f01U, 0x3e860502bdfd6c4eU, 0x3e9995cd3d936072U, 0xbecbdb303ed76817U,
  0xbecf3d6d3df441bfU, 0x3e7d8a0abdcf2ad7U, 0x3ea39ee6be886c1cU, 0x3dce18513e3fd682U,
  0x3e1f1d903e6fdd07U, 0xbe604f29bed80cb1U, 0xbf0b794cbec45fc9U, 0xbf0f27dcbe2a04f0U,
  0x3e4b9111beb416b5U, 0xbb0c5fc33e6e4c80U, 0xbe0366a43e13fbd3U, 0x3d05adf2bee27a71U,
  0x3ea8a80bbf074bc4U, 0xbec780f13e00f1cbU, 0xbf1f53de3c80dc44U, 0xbec9f056bd66c0ffU,
  0x3dfeb4adbe2cfe71U, 0xbf0c361dbe390358U, 0xbe115a43be8ab7d2U, 0xbe9151e3bf04e89aU,
  0xbe2fcf6cbe25f1e2U, 0xbefbbc113df15ec8U, 0xbe68678f3ef04a1fU, 0xbcfb4079bf117550U,
  0x3c976ef93ed6de72U, 0xbf17f1843e9c1f8aU, 0x3da6b03ebecca41aU, 0xbef28ca2be8e5c7dU,
  0xbebe125abeafc573U, 0xbf151501be241242U, 0x3efeafa63e0a5411U, 0xbe95d9f13eb8eafbU,
  0xbd9f8ed1bcfa3476U, 0xbcac39fcbe81098eU, 0xbe5094efbd9fbfd6U, 0xbe29d678bca11d30U,
  0xbd018c2cbcf5da86U, 0xbd575c7cbcc5f1c9U, 0xbe3a73bcbe0be6eeU, 0xbd6af59fbd7acb58U,
  0xbf2de6cbbf1a43caU, 0xbf275f303d882a8dU, 0x3e8a2dd1be67bad2U, 0x3ed1d15cbea28bb1U,
  0x3f057c4e3e373533U, 0xbd2ad93cbeb30258U, 0xbddc3fec3d1eeea2U, 0xbf28e5c9be9ca422U,
  0x3e68ad07be22cd34U, 0x39954a38be2debf1U, 0x3e93e609be2dabe2U, 0x3e452cbd3e01adbdU,
  0xbed5788abf23b9beU, 0xbedae7b9bec283a4U, 0x3e8294cd3e7d22aeU, 0xbdf7570e3d719602U,
  0x3eb99ac93f2f4720U, 0xbf1296f1be5668fcU, 0x3f0bae723e2f1e0dU, 0x3ee00adbbed435ddU,
  0xbeec046dbeb4b030U, 0x3e80fe93bf36f175U, 0x3eb4e9473e15c320U, 0xbf0d89f1beced24bU,
  0xbe743c15bc7bd11cU, 0xbe6fd52cbedee4f2U, 0x3f00995abf077958U, 0x3da679bebf2b96c2U,
  0x3c8501513e0cacefU, 0xbdaefa24bef45703U, 0x3eb3542b3c3593c0U, 0xbe328fdebf0a6e69U,
  0x3eeea1dd3e780d23U, 0xbe9950153e4a7ce9U, 0x3e62584cbef3cff5U, 0xbe28cec83f37276cU,
  0x3e4b43f23e2cca71U, 0xbc2a90e33f2790d8U, 0xbf0779173e8bdb7cU, 0xbebb7a20be75d420U,
  0xbf0c22553f11884bU, 0x3e852001bec01004U, 0xbe426417be9a3405U, 0x3e7068d73e1b0e86U,
  0xbf13ff723d17bcbbU, 0x3db94896bed541d8U, 0xbee097c0bf083c2eU, 0x3d134715bee0d9c6U,
  0x3e997908be63b73eU, 0x3e820f813e7ad4f1U, 0x3df03c6c3e96f0dcU, 0xbed25165be320f09U,
  0x3efcc55d3e9d9383U, 0xbdf7b15f3c5b1b3bU, 0x3e365d0abe38b774U, 0x3ce5ae823e93f782U,
  0x3dc0b14ebd9a44c2U, 0x3dd9549abe79c323U, 0x3eda69e3beb15e67U, 0x3e11c07bbdec171eU,
  0xbea3e739be9c25fdU, 0xbf1dffd9bda23090U, 0x3ec71c3e3ec8149cU, 0xbf4bf2743cd16340U,
  0x3dc18a81bd8491dfU, 0x3e2e97093dedf1a4U, 0x3e0fdb7fbded12cdU, 0x3d5cf953bdfba5a0U,
  0x3e511d253f0b0eb9U, 0x3ea685ae3e2b5ffaU, 0x3e481e70beb0eebaU, 0x3dd1bc183ec5d18fU,
  0x3c0174783d34f552U, 0xbe2aa2e0bcb54ec0U, 0x3f1bbd343f1d7a44U, 0x3e7fc93cbb38c591U,
  0x3da214db3de14faeU, 0xbc1fa2953d2d5b3fU, 0x3efd190b3e40f4acU, 0x3f3c9d5e3f33a1c1U,
  0x3eee75a13ee612ecU, 0x3eff859e3f1403cbU, 0x3f1b3694be9f50fcU, 0x3f02e94abec397b9U,
  0x3e944c8e3dfdbe78U, 0x3e931db9bea2e1d3U, 0xbe436956bd0bb418U, 0x3e7f95f6bd36d03eU,
  0xbef9aa94be7a09b1U, 0xbf07b016be722cc9U, 0xbf19ac2fbd99be41U, 0xbf205b1fbf0a1545U,
  0x3e80728d3ee882c6U, 0x3ed02ef1be14cc1cU, 0x3eaa67943e334939U, 0x3e93b964be9e3e75U,
  0x3e3eafc43e9115a5U, 0x3e7fec27beda5fd8U, 0x3e00994f3e654768U, 0xbea9f23cbf297fb8U,
  0x3e170c1f3df34abaU, 0xbeb7452e3e52c940U, 0xbe5c2436be92699bU, 0x3d6818d43f138321U,
  0xbe48263dbed05c8bU, 0xbe7e85393e3d63fdU, 0xbce850b73ee4b483U, 0x3dc3ce5bbdfff91aU,
  0xbe258d633d9ff925U, 0x3e5dd8803ea58da2U, 0x3d6badc7bebb0379U, 0x3c4b841d3eb85e83U,
  0xbeafbdeabec9af6cU, 0x3eea2e1dbd231f6dU, 0xbe62497a3dc5c344U, 0xbe2a509cbea09422U,
  0x3ea327443ddbe5ecU, 0x3f19af833d5697d1U, 0xbd779f42bdf2aff4U, 0xbea26c2e3eee1555U,
  0xbd7b62f2be51f3e7U, 0x3eaf3eb4be1a5301U, 0x3ea9bfbd3de3a588U, 0x3e326f223f149dd5U,
  0x3e5826853d9756e4U, 0x3db5397f3dc96e49U, 0xbecefcd53e774f96U, 0x3e1d77f1be788c50U,
  0x3ec6abf6be2538f1U, 0x3f2aea99bc7ec83bU, 0x3f17bfafbe5baeb3U, 0xbe1a0c9cbdc4eae7U,
  0x3e0fe37d3da3cb80U, 0x3debe42c3eead077U, 0xbe6c39093d930c13U, 0xbe2613623dbe6aa6U,
  0x3dc0bfdf3db35797U, 0x3d3a2e1b3d9da111U, 0x3e2387f43e4cfe80U, 0x3e4c43213ca92ff8U,
  0xbf306174bf3191a9U, 0xbf2e0e69bf2f313eU, 0xbf2ba09fbf2cd0d4U, 0xbf294a42bf2a7069U,
  0xbf26dfcabf280fffU, 0xbf247f5fbf2522a7U, 0xbf221ef5bf234f2aU, 0xbf20330bbf20eebfU,
  0xbf1d5e1fbf1e82caU, 0xbf1afdb5bf1c2deaU, 0xbf18e7cebf19cd80U, 0xbf16853cbf176d15U,
  0xbf13dc75bf150cabU, 0xbf117c0bbf127185U, 0xbf0f2807bf0fe800U, 0xbf0c6d36bf0d9834U,
  0xbf0a5acbbf0b8b00U, 0xbf07fa61bf094ba7U, 0xbf0599f6bf07283eU, 0xbf031e0abf04306aU,
  0xbf00d921bf01c3b0U, 0xbefbbf44beffde3fU, 0xbef7febdbef9ffa3U, 0xbef34a6fbef5db42U,
  0xbeee8c20bef0f10fU, 0xbee9f8d6beec66e8U, 0xbee52befbee708c5U, 0xbedf873dbee2a4b8U,
  0xbedb5852bedd18edU, 0xbed6634dbed8e333U, 0xbed2547abed4d9fdU, 0xbecd04c3bed0058fU,
  0xbec89231beca9bbeU, 0xbec3ae19bec687b4U, 0xbebeb050bec1ce68U, 0xbeba0a77bebd0405U,
  0xbeb53701beb7fe7dU, 0xbeb0a220beb3e20dU, 0xbeab8f7bbeadad4cU, 0xbea74b6dbea95d0eU,
  0xbea2b9dfbea45f07U, 0xbe9e6b57bea0d69dU, 0xbe99b541be9c3319U, 0xbe942d7cbe96b647U,
  0xbe8f97bdbe9211bcU, 0xbe8ab03cbe8d32b3U, 0xbe85e4e3be88677eU, 0xbe8113debe8365fcU,
  0xbe78ff3dbe7d3f68U, 0xbe6fcd6fbe740207U, 0xbe6621f0be6ae3baU, 0xbe5c663cbe60da25U,
  0xbe532452be57d8beU, 0xbe49407bbe4de829U, 0xbe4082efbe44eb3cU, 0xbe369918be3ba16bU,
  0xbe2df826be325648U, 0xbe2324b3be286059U, 0xbe192da9be1ddf9cU, 0xbe10035fbe148798U,
  0xbe068a0fbe0b528cU, 0xbdfb0f6ebe025db5U, 0xbde76872bdf18df3U, 0xbdd3b319bddd6a73U,
  0xbdc08007bdca9792U, 0xbdadfb81bdb6de10U, 0xbd9928aabda3e3cbU, 0xbd86e43abd8e962fU,
  0xbd6b1fd3bd7cb98bU, 0xbd459622bd586ba4U, 0xbd200f9ebd329458U, 0xbcf3b9ddbd0cf735U,
  0xbca850aebccdd792U, 0xbc36e600bc81e212U, 0xbb00564cbbd5661aU, 0x3bed18a13b2725c0U,
  0x3c888f723c43c096U, 0x3cd3a8503cae9984U, 0x3d0fb91c3cf9afe1U, 0x3d35513d3d2315b3U,
  0x3d578b843d46c7cdU, 0x3d7de1cd3d6812a0U, 0x3d927b323d88e4c4U, 0x3da4c0fa3d9b7b0aU,
  0x3db7d8eb3dae1aedU, 0x3dcb33373dc191f0U, 0x3dde64543dd4e49aU, 0x3df28f663de82f74U,
  0x3e0332703dfca6f9U, 0x3e0c8bb23e07cc10U, 0x3e1640b13e112be3U, 0x3e200a393e1a76d9U,
  0x3e29723d3e24649dU, 0x3e3306823e2dd8c1U, 0x3e3c01ca3e37bc68U, 0x3e4538a53e4051d8U,
  0x3e4f486c3e495b2aU, 0x3e594e983e55bfa2U, 0x3e60fd653e5be2b3U, 0x3e6bc4123e685588U,
  0x3e75fdf13e715d24U, 0x3e7e07873e79c1d8U, 0x3e8411fd3e81b193U, 0x3e898f873e878397U,
  0x3e8cfc303e8a202eU, 0x3e91fb0a3e911e0eU, 0x3e9715523e95291aU, 0x3e9c04be3e98f275U,
  0x3ea16ed23e9e3691U, 0x3ea53fe63ea31f25U, 0x3ea993e53ea80ce8U, 0x3eaeb4fe3eac29d0U,
  0x3eb36ee43eb2800aU, 0x3eb85b253eb5fabbU, 0x3ebd2fe93ebabb90U, 0x3ec1e1dd3ebee07cU,
  0x3ec7018f3ec43d3aU, 0x3ecb5e793ec8fe0fU, 0x3ecf77b73ece9ab0U, 0x3ed5814e3ed27fb9U,
  0x3ed9a0f93ed7408eU, 0x3ede61ce3edc0163U, 0x3ee322a33ee0c238U, 0x3ee7e3783ee5830dU,
  0x3eeca44d3eea43e2U, 0x3ef165223eef04b7U, 0x3ef625f73ef3c58cU, 0x3efae6cc3ef88661U,
  0x929591898ba09288U, 0x889497a09a968c93U, 0x90919b8f9b918f8dU, 0x9c938c8c9d9b9695U,
  0x97939ca29a9d8b95U, 0x9d988c94928d998dU, 0x9387938b9d98918eU, 0x96999e8e91938f98U,
  0x8f99948d988d9c9fU, 0xa1a08890889c8990U, 0x8f929491959f978dU, 0x9196969b8b999693U,
  0x9989a08a87958a99U, 0xa18f918d9b8e9ba2U, 0x91948e8a969c878bU, 0xa0989e9f96979594U,
  0x96908d9b978a899cU, 0x978fa18ea08c8d92U, 0x929b96878ea08b9dU, 0x87948e928d909295U,
  0x9e8ba29f979f9187U, 0x938d959d948a898cU, 0x95878ca194889598U, 0x92919d8b998e8d91U,
  0x9998929b91939f8cU, 0x94999e9f9d8795a0U, 0x908a9b968b8f8697U, 0x899a918a9ba18a8eU,
  0x8f939f928899a19cU, 0x938e87a2959090a0U, 0xa18f878e90a0889cU, 0x889c9b9f8f8c9f95U,
  0x8d99938c9f929090U, 0x978d90869ca18a8cU, 0x9f899695999aa190U, 0x8e9095938d899291U,
  0x8b8d9a95a1958895U, 0x8e8f8d88909ba096U, 0x9ea18c979d889aa1U, 0x8a969b868d96989cU,
  0x979b998992939f8aU, 0x9d938b9e9e968c98U, 0x9b8fa0889597a089U, 0x8f8d97a28f8f898cU,
  0x889398878e9098a2U, 0xa19f9ba19a9d9d9fU, 0x949f95929da19e94U, 0x9087a09ca0968889U,
  0x9a938a929c928c8aU, 0x8f9b908f928a978eU, 0x8988968a8c9991a0U, 0x90888c87938f8e9dU,
  0x92908e938888919eU, 0x928e9f8b9f88939eU, 0x919c9393899d918dU, 0x979d8e919d959391U,
  0xa0888c8b9e9399a0U, 0x909f969f9d889c94U, 0x8a8b8b959e8aa08dU, 0xa18b9b948b949b9aU,
  0x9091988d968a8b8fU, 0x998c9d9f888ba0a2U, 0x9a928f878d9f9099U, 0x928c98988e8b9f9cU,
  0xa29c8b8b9d98939fU, 0x8c8d8a9f9298a090U, 0x8c94889e9b909d87U, 0x8f9b8a899488949fU,
  0x929a9e9287908794U, 0x9e8a94a0a0998892U, 0x979da097988b8c97U, 0x8a96989e9d8993a1U,
  0x9794899b9a97978bU, 0x91909f9d99a09f9aU, 0xa2918c96929a9396U, 0x928e8c889b8e9e92U,
  0x9594899a8d89889cU, 0x8f90998e868e8d92U, 0x9f988d979b8a9d89U, 0x868e88a2909d8d94U,
  0x908d89a0878d9b98U, 0x9f9c8b9b93969795U, 0x9f8e9e918da19b9eU, 0x938d929f8da18798U,
  0x9e919c9c99989390U, 0x9d9187918b958a8eU, 0x8c9ca2909194a28bU, 0x918789998c8c9887U,
  0x8ea09b919b8d8a9fU, 0x9c8a9da0978d9099U, 0x9689889a998e948eU, 0x99908b98a2a08f8bU,
  0x908e89a19298869aU, 0x8e91a08c92a28f8cU, 0x9c89969a928e97a2U, 0x91979789988c919eU,
  0x8ea2908b9fa09188U, 0x9694a09a90968b8eU, 0x8c95889b96959a8fU, 0x8a9da1959f9d8992U,
  0x908c9f8a9893889dU, 0x8a969a8a998a8896U, 0x8c959e8f99919d92U, 0x928d989c938da191U,
  0x9994a196948f999eU, 0x938ba09288919498U, 0x9c9090a197a1939bU, 0x8792a19b919487a2U,
  0x9a9a898f91949f89U, 0x9598a09b96909d90U, 0x8b8d908a9a979e8aU, 0x8a8c99898e9b9f90U,
  0x8a8b9898919c9188U, 0x9b958e8c908a929dU, 0x868c8c9a8d9491a2U, 0x938b9ca1989a888cU,
  0x91938d959f9ca096U, 0x938aa1938d9aa18eU, 0x9e9d9e89969a8792U, 0x9ca096989e8d9d9cU,
  0x9f969e9b889c8d8eU, 0xa197918a9ba19387U, 0x9da19ba08f96899aU, 0x9f9fa097a099959eU,
  0x8d958b9d9e939e86U, 0x888c9c9aa0969289U, 0x888e958a999aa088U, 0x919d9497999a9e99U,
  0x92928f9d86928a8fU, 0x9e909c9594a2869aU, 0x868e8c8c97999b8eU, 0x8d8b92a29c908a9dU,
  0x98a09f9f9995908aU, 0x89979da08e919c98U, 0x9d8f9c8a928f9d8cU, 0x989a939a959a918dU,
  0x959d92998b908993U, 0x9893918e9d939c87U, 0x95989897988f9086U, 0x8fa287929a9c9a95U,
  0x99a28c88909b9191U, 0x939a978f96a29a94U, 0x9a8ba19293a19d9fU, 0x919a8b889b94869cU,
  0x948b878e898e8989U, 0x9a88978f9b9d9e99U, 0x898c94978f8c8b92U, 0x918e9b999c8d9e8aU,
  0x9f9c9d968b89898fU, 0x9a978d908d969192U, 0x9d9e8ea09b929392U, 0x8a88898f968e8b8dU,
  0x8c87989aa0a29a8cU, 0x9395918c979da2a1U, 0x889d8d9d988e9f98U, 0x97a2a087949e8991U,
  0x8893899491988b8cU, 0x8e8b8d8c9e989191U, 0x939f969c87a0939aU, 0x9d948e969ba08c99U,
  0x969b8d929b9aa190U, 0xa296968698a49591U, 0x939e98909b9d9687U, 0x9b9688889ca09b9cU,
  0x9d968f9f9190908dU, 0x8e949aa199929a8eU, 0x989f8a968d96888bU, 0x8b8897918d979092U,
  0x8f908b9287999d8eU, 0x888a94928b8d9e9aU, 0x91879b9e8891a094U, 0x8d93948787a4958bU,
  0x919d9d9195978d9bU, 0x86a088a0909d919eU, 0x9aa09a9d92909c9eU, 0xa19a96a18c8f9199U,
  0x8a8b9b8f8a8da189U, 0x8c9d949b9e9b8c9dU, 0x8f968f948ea1a089U, 0x92a19c979993959bU,
  0x9d7c93a3d18aaa8aU, 0x7f9e8c9b7e95568fU, 0xa293969cb796a895U, 0x84938e94a3afa8aeU,
  0x8f949e8d9d9a978cU, 0x9c91999d96c09bafU, 0x958e8da7938e959eU, 0x9aa89e9690b1a1a3U,
  0x94a48d98a4947d9bU, 0xaf968f9690afafa3U, 0x98a08aa79d8d8f9aU, 0x979d8d989191a298U,
  0x899e979c95919383U, 0xa995928b96a49fa9U, 0x909d9895b89398a5U, 0xa2979899919d9c9fU,
  0x99929da29b8a989fU, 0x839697929e9e9893U, 0xa1a09593988a999fU, 0x969f99a19c97ababU,
  0x9c9b8d9c9b9094a6U, 0x8a98979ca3a2a199U, 0x9f9b929e9aa19b92U, 0x93989f9d9da893a2U,
  0x96958ba39d9d9d9dU, 0xa68d968d97a09898U, 0x99a7a195a79c89a3U, 0x88a0899e8e98a0a2U,
  0x9b9898a69a948590U, 0x70919c909b9593a3U, 0x8f8e89a2a391a9a4U, 0xb0a895a48f9497a9U,
  0x94a88a8ca2999c98U, 0xa29b979d8b949ba1U, 0x9ea59aa39c8e978eU, 0x8ca295919b94a193U,
  0xa4a3978f8f9f8793U, 0x89938aa39d95a89fU, 0x96a295959c8a9494U, 0x7d96998d8ba0a5a3U,
  0x949f9b99a3a2958cU, 0xa09e9ca194a39598U, 0x8aa49f9dac8ea697U, 0xa98f95968a9ba697U,
  0x9ca49fa0ad9aa2abU, 0xaa928b8f9ba4a392U, 0x8d909da59992959aU, 0x8d948a9b9ea39993U,
  0x95a399948697a1abU, 0x84a799998fa8919eU, 0xa3a79d97968aa499U, 0xa19c999aa296939bU,
  0x8b95918da29ba6a2U, 0x909b9d949296919bU, 0x979c8b9195a19ba6U, 0xa8a098948d9ba4a6U,
  0x8da58c8f90a2ad8bU, 0x8f929295a3969c9cU, 0x94a3939ab092a6a6U, 0xb3998e9791938c8fU,
  0x9e9b8a94868da29fU, 0x959e9899919296a6U, 0x8c95a195aca0aba3U, 0xa6a78c8b8d8da692U,
  0x8d8da096a38b9796U, 0x8ea0999c8e9c91a6U, 0x929692938f9a9d96U, 0x94969296a1a49490U,
  0x9aa78aa591a092afU, 0x9b928d98a3949ea6U, 0x90a2889ba8958d9aU, 0xa78f93a38d8f90a1U,
  0x9aa49297a198a8adU, 0xa1a89ba49fa69493U, 0x988f99939f999c9eU, 0x93a697999ea7a195U,
  0x8ba087a2a7a290a7U, 0xc1a08aa4a6a2a48eU, 0xa39c9291a7949399U, 0xa4928f8f95908d97U,
  0x8c978ca3b59e8faaU, 0xa0a3958a959894a4U, 0x9b988ea39a88a09fU, 0x969ca3919fa18b94U,
  0x939397a6b493ae9eU, 0x9396a38b9a9190a5U, 0x8ca6a0a59a91a394U, 0xa999a498a49d8a94U,
  0x9a9a93929aa09ba2U, 0xab8fa2a1969da09aU, 0x8b9b92a1889f9896U, 0x9ca3a2989c999397U,
  0xa3599e9c909c8a8cU, 0x5f9f989aa09ca294U, 0x8f7b8ea281978b79U, 0x61a4919a8ea79b87U,
  0xa46f9aa28f8ba298U, 0x889f90939d909996U, 0x99779ba28aa2a888U, 0x859c928a9f997e7bU,
  0x8f6f93a48c899f8fU, 0x7f9e9aa493928d82U, 0x947da08fa893a19dU, 0x909fa4a4979d906dU,
  0x9385a29d8f8c9a9aU, 0x8d8f979ea49f7a89U, 0x8d7a8c9178938a94U, 0x919da295a3a4827cU,
  0x91728a9363a29f9fU, 0x7799a4929ea67c76U, 0xa16e9791848da596U, 0x7fa88997aaa7976fU,
  0x9b7394909a8d9187U, 0x79a4a39fa5947d6bU, 0x9f79978e7d8a9788U, 0x8f9996a09baa7666U,
  0x91729b9c83969787U, 0x8e8d938eaba9887dU, 0xa07b9c97769d8b96U, 0x7a9aa08fb0946c73U,
  0x8a82a19f819da29cU, 0x778d929ca9a36c68U, 0x8e879ba37997a39bU, 0x86a08b9ca69b7264U,
  0x987c9a8f998b9d94U, 0x8e94a3a1a591676aU, 0x94808e947d899a8eU, 0x7e91978ba3947f6bU,
  0x8e7991908b9b9697U, 0x8c9296a0939d536cU, 0x98819d95918ba086U, 0x8ea589a391967974U,
  0x9b7fa2907d889b8dU, 0x7ca69290a1a65c69U, 0x946f949692a19685U, 0x768d938e94987976U,
  0xa2829f93968e968dU, 0x7c9a9ea495a6547cU, 0x9a779f99839aa18aU, 0x80a29b90a8ab5b80U,
  0x9d7e92908c8f908dU, 0x87a8918993a75474U, 0x9b77938e909ea094U, 0x8b9189908e985874U,
  0x8e7e8c948b9e9a94U, 0x828c8b9e8ea6467eU, 0xa172989c99a18c86U, 0x8992a1909ca53683U,
  0x8d7ca09c8292a199U, 0x86908d89a490335eU, 0x8e78929c7f91928bU, 0x80989e89a0a27762U,
  0x9080a3999d9f9f99U, 0x868e969188924382U, 0xa2778c918c929085U, 0x84a3a3989ea33f67U,
  0x9580958f8f99999dU, 0x89a59e99959f866dU, 0xa08393a2a58d958dU, 0x8196999f9b99546bU,
  0xa37390a38b959f96U, 0x7f8d9896aa96375eU, 0x8a708b9082a29885U, 0x8c978ca3a19e596aU,
  0xa3758b9c7f9ea29eU, 0x7f9d96968fa66d7aU, 0x9f769390898e9d8bU, 0x7e9c8a8b8a8f6357U,
  0x8b8494a48c97989fU, 0x8094929e849e5561U, 0x977d968e71919f89U, 0x8a9a9c9294a45b6cU,
  0x917691a27d8f9e8aU, 0x74a8a09a9398605fU, 0x937389938e93918aU, 0x83a39d9d8aa4416dU,
  0xa070958ea39a999eU, 0x7b96a18c8f943e6aU, 0x9672878d9b88a291U, 0x8996968d90966e59U,
  0x8d8d9c99978a8d87U, 0x9b949fa092939997U, 0x8d8a8e979f959a96U, 0x91a19899938f9a87U,
  0x919d8b8d99899b90U, 0x998a9b8d899f899dU, 0x999d8f8a8f9a8a8aU, 0x8b989899978b8f88U,
  0x889a9797a2979c9eU, 0x999790979c949787U, 0x899ca08a98a08c89U, 0xa1a095978c8d8f98U,
  0x9b9b8d9fa087869bU, 0x989d909c9489959dU, 0x8b95899498949591U, 0x9389938fa0878a99U,
  0x979c8a8fa29f9491U, 0x988f8d9c998d8a91U, 0x9d8c95999899a291U, 0x8d88939d92939d8fU,
  0x88a18a8d9a9d9a86U, 0x8d9f999c9f938c8dU, 0xa08c9a8889a29197U, 0x929e968f9d8b928dU,
  0x92a298878da09297U, 0x94a2898b93958c89U, 0x9ea18f8f93a29896U, 0x928e989a91918e8cU,
  0xa296a1948a959d90U, 0x8e8a8c9b9d91908dU, 0x90919c8b90a295a2U, 0x8e9c969f9c8f8c96U,
  0x9f968a969887a287U, 0x968b9997879d92a1U, 0x9c8ca0999296889aU, 0x9495a1988c9e93a1U,
  0x968d8b928d909ea0U, 0x9d8d948f87959c96U, 0x90a09e8e9899a198U, 0x9d958d8c8b958a8eU,
  0x9b9193928a919997U, 0x949e9c8893939f8bU, 0x9e9a8e9da0939293U, 0x9e8795929097a088U,
  0x928d988d9e8d8d9dU, 0x8992919299948794U, 0x949686979a8a8e90U, 0xa297918ea1978f98U,
  0x8988999099969d97U, 0x9fa1998b8fa09d9bU, 0x8b91988a978c9e9dU, 0x88a08a87868d8e87U,
  0x8b8988a09c9a8b91U, 0x93979e95978c9f98U, 0x9b9e8ca09f948994U, 0x8e979e9c91899387U,
  0x878d8f8a928c9590U, 0x9d9f9e9f9a938e9fU, 0x8a9d948a9789a18eU, 0x90889c8e9b9b9c95U,
  0x998da0949795979aU, 0x95989a8b9c8b8f9fU, 0x9588988788a18e9fU, 0x97939ba099939189U,
  0xa09799918c928b93U, 0x988e8f9f98909587U, 0x99869d999aa2928eU, 0x9e9f8b9c91a18e87U,
  0x919f978d8b949f95U, 0x909b8f8d9d90899bU, 0x9e9ea09892949090U, 0x978d9ea1a0908d87U,
  0x898a9c8d9d8d9f90U, 0x989f958a9f9e9788U, 0xa0919494909b8ea1U, 0x97a298898f9c8b89U,
  0x9b9f989e9c969587U, 0x99a2a2939398938bU, 0xa08f87a0938a9f9fU, 0x9c97979991879b87U,
  0x939b969197a0a191U, 0x8d8b8c8a89959188U, 0x9189959689998d90U, 0x8f8c8da09895988fU,
  0x9492988f8a898894U, 0x8c98939098888c99U, 0x899389878c9a999aU, 0x918ca19d9ea08c88U,
  0x888ca28d9589958bU, 0x95898c96988e909cU, 0xa09ca09aa2988b9bU, 0x98889187a2899895U,
  0x8e9a9791928d8b90U, 0x89918c87999e928cU, 0x9e92898b9d93898aU, 0x8e9d9d97a095928eU,
  0xa0a1898b8c9a9b9fU, 0x978a9691999c8b9aU, 0x8b9b9a8d8b96999fU, 0x8d9194938f9a8d92U,
  0xa28c9692898c96a1U, 0x8b9d9b9f938b9894U, 0x94928e8d8e999f8bU, 0x968c8f8a8b8f93a0U,
  0x9c93939b889d9d96U, 0x92928c9f9a9d9595U, 0x9c9999998c968a96U, 0x92998c93a09d8a8dU,
  0x8b8a928a8c99918eU, 0x908f99a29b9c9588U, 0x998c998d999887a0U, 0x8e8c9d8b8e9b8a94U,
  0x9c869b948c95918eU, 0x9d9d92989b90989dU, 0x9192a286969d9f88U, 0x9791908a97919b9cU,
  0x89938e918e8a8d90U, 0x958e9b9b97878b9dU, 0x92968e9f9ea09c99U, 0xa2919e8f9289988fU,
  0x93958f92a19b8e8dU, 0xa2969a8f8c9b8986U, 0x91939b8e8a90889aU, 0x9d988b979194969bU,
  0x8699908a898f9999U, 0x91a09b9699898c87U, 0x94999a8c8f9e9392U, 0x878b8d9099999a98U,
  0x8e9c978a8b8f8c99U, 0x959a8b8d9aa09687U, 0x8c9ea2999298949aU, 0x8a919d9b9c99879eU,
  0x968f939a8b98959bU, 0x9f9a8b8d888e9a9eU, 0x908b9a918999999bU, 0x8d888a9f90979394U,
  0x96a1948d8899898aU, 0x9e95989a9f978ca0U, 0x979194a097998e9dU, 0x8c8c948e9f8f9f99U,
  0x998b968c97899793U, 0x929f9ca1919d8e8cU, 0x888e938ba1989992U, 0x8e8b8c8d95929a94U,
  0x8c9e9a8f9193908cU, 0x9791879c9e998b89U, 0x8aa1908d99929293U, 0x958b89a28e87978eU,
  0x939d879d8e9ea18cU, 0x94a0938f99908d95U, 0x97999ea087a08f8aU, 0x8e95879193879391U,
  0x928c969d908e8ea1U, 0x989ea2938f8f9b96U, 0xa2999595a186948dU, 0x968987a28e899f93U,
  0x959491959f949798U, 0x8da09f9088959da0U, 0x8b94a09289919989U, 0x919b90869b87a192U,
  0x8ba1a186928b999aU, 0x9c9c9e979c9a908bU, 0x988d9296988f9b93U, 0x9f8d9c94909d8b90U,
  0x9b9f919c978b9497U, 0x9a8e9d87919e91a0U, 0x8c87968c8e989b98U, 0x988d8d9f9c959492U,
  0x9f988ba08c998699U, 0x8e968a8d92a29b8fU, 0x9c9c8ba28a909994U, 0x939c9e8a9b8d8992U,
  0x8c96928c8a8d898aU, 0x9b9e869a9b87869dU, 0x8a958f8f96949195U, 0x958d8a9c8e88998fU,
  0x9c8c9587a194919cU, 0x9d8d918892888a88U, 0x89a09e8a9c959099U, 0x9094909f958f9d87U,
  0x98859699e99a9e89U, 0x7095949287955e7dU, 0x9096a498a693918aU, 0x82a292999fb2a2adU,
  0xa3a4a293999494a0U, 0x9e968ca59ebdb0a7U, 0x91a0909ba29a84a3U, 0x88a7a58f929b9d9eU,
  0x939d94a2a29683a1U, 0xaf8d8ca69da1a3aaU, 0x929fa19492a0a3a1U, 0x94909d99a49e9da0U,
  0x96a8a1a69d907d8cU, 0xa994a697a0a5a5a2U, 0xa5929aa19c98889eU, 0x95a09797a38ba3a2U,
  0xa09a9d968c95899bU, 0x7a8e91958ca897a9U, 0x95a49ea08f91979eU, 0x90a4979e8893a692U,
  0x9e9b8f97998c9ca9U, 0x9e9a9b90a09aac9fU, 0xa195919ca48b979eU, 0x828d99a2999da6a2U,
  0x9896a0a491a091a7U, 0x919b8c938ba493a2U, 0xa4949b909a9e8093U, 0x869fa494929e99a4U,
  0x9ca0949d979795a4U, 0x778d9b9793a9969aU, 0xa69ba394ad8f9f9fU, 0x9c9f92969f979296U,
  0x98a8a397a3999a9fU, 0x9b9296a592a28fa0U, 0xa3a699a0a48c998dU, 0x97929f928e9e9591U,
  0xa593a68e899d999aU, 0x7f92929c9b969ea5U, 0x939c9c8c8b948b7fU, 0x919e989a91a09f91U,
  0x9ca68fa79c9b8f9aU, 0x8f8e9ea3918d8fa2U, 0xa69d9aa49d9d9a98U, 0xac9b978d89a6a895U,
  0xa69da59f98a1a5a0U, 0x9b978d939d969d96U, 0x919e8c9c9f92a698U, 0xa49b9b92929ba08dU,
  0x8eaba3a49395979fU, 0x839f8d999aa99aa6U, 0x94a38e9c9b8b9b92U, 0x9e9d90a6a1a2a7a6U,
  0x979b98a5a0a2a39eU, 0x7d9e9ca29b909ba5U, 0x8fa79d8eac9097b1U, 0xaba08c939aa59094U,
  0xa0a8909f88989d8dU, 0x8c97a2919ea890a8U, 0x9b95a4a4aa9093a0U, 0xada2a1a0989e95a4U,
  0x9ba89e9e8ea2a7b0U, 0x969ca29fa2a7a597U, 0xa5a3a295a58e9eb4U, 0xa09c8d9ca48e8c97U,
  0x96998f97a1919d95U, 0x96a89892a592a39fU, 0xa5a799a59199a28cU, 0x7ba4a6a48b93928dU,
  0xa0ada69091939ba8U, 0xa6959d979b94a697U, 0xa5a78e9d9aa3a4a9U, 0xb0939b918a9d8fa0U,
  0xa79fa0a2b099ad9fU, 0xb59f94939c9ba19aU, 0x8ea28c939197a987U, 0x8b909b98a4a5a191U,
  0x96a29b9ba59488a8U, 0xb0a0a38d9a9a97a4U, 0xa0ab9392a4969aa1U, 0xada4a59c8da7a091U,
  0xa095a19cae95a6a8U, 0x999ea19894a39194U, 0x97a1a58e9e90a392U, 0x8b8ea293a29d97a4U,
  0xa39b9494a58ba28aU, 0x9d988e9e95a496a6U, 0x8eada398af8f9899U, 0x9a9e9e9ca6999fa4U,
  0x9f919da6899e9d9cU, 0xada8a39a8ea78e9bU, 0xa4879894a7a1949eU, 0x8c9a8c98979f9e8dU,
  0x9c639aa48d9a899cU, 0x619491a39794a3a3U, 0x9e8595998e9da080U, 0x68a493958e8f899bU,
  0x8f87a5a0a68fa896U, 0x8c9ca59893909293U, 0xa5858f8d7fa0a384U, 0x7f9aa38d9d908b8bU,
  0x9687a5938f958582U, 0x72a0928d8e9b897cU, 0x96819a8eaf989580U, 0x798e8da595a2858fU,
  0x9383988d8599967fU, 0x8695a29db09f8b85U, 0x987f92a171939290U, 0x8d9b9fa49b97907cU,
  0x937598927a96957dU, 0x7b9aa599a29d8c81U, 0x9d7c8fa391939694U, 0x7f9b998d99a7888aU,
  0x97849d98a68b9984U, 0x8c9d8ea2a0a69d84U, 0x97909ca28aa39980U, 0x77a48c918f987d73U,
  0xa27fa69482948a86U, 0x779d9b90ae949787U, 0xa091a19471929191U, 0x7e988ea4bc9c8c85U,
  0xa47e8f8d7f929188U, 0x829fa6a39fa17f7aU, 0x9788989c79a09897U, 0x7f9f9f9fa6a68185U,
  0x9e838da2ab8b9e7dU, 0x8c9791a6968f8370U, 0x978ba48e92a5918fU, 0x809d8d9c99a78b89U,
  0x9b89909593a1a17eU, 0x8e93969290907274U, 0x96909c97928f878fU, 0x8fa5a58fa99d9172U,
  0xa2768e8c7f969692U, 0x81a494a6ae907b66U, 0x8d778f9c8fa19c8bU, 0x7c90a498a4918679U,
  0xa786a48e8ea09282U, 0x7d8d998d939b6683U, 0x9a849d9572a19d7dU, 0x7ba08da099a0748dU,
  0x958e959897a5888fU, 0x89929c939c917176U, 0x9e799c8f88979984U, 0x75979c9087a5718fU,
  0x96889d92789f9d7fU, 0x7a908ea58ca35583U, 0xa48aa1a1a89c9e88U, 0x769092a38c935d8fU,
  0x8e88968d8fa19681U, 0x7994a5a59c924068U, 0x918890947b989383U, 0x7998979498a0786dU,
  0x8f86968e909c8d94U, 0x7d92a39d8992668cU, 0x9c90989e8c9b8e8fU, 0x73938c9baf91627dU,
  0x997e989093a2938eU, 0x739a9f939da4986cU, 0x90859f95a1929c80U, 0x78a48da49fa1696fU,
  0x9983929a96909094U, 0x7ea09b8e95995671U, 0x9e829c999a8ea17fU, 0x7da6a5a49b9f7181U,
  0x9988a3979495868dU, 0x8c979d9d799a8883U, 0xa283999f8d9b9c8eU, 0x78989e9b8698796bU,
  0x938d929ea18c888cU, 0x83949592949a5b78U, 0x9679a49872a39488U, 0x72999093979a7a84U,
  0x9a83a3a4898b9f7fU, 0x7f9d8c9e7e907d7bU, 0x9180a1a17f9a8e93U, 0x82a897988b99616bU,
  0x9c779198b1938e8bU, 0x8d9aa59590994777U, 0x97909a97a6939890U, 0x7e91a59d8b99746eU,
  0x9b828996d99d9e84U, 0x728f929b89966376U, 0x959892a5a58f96a1U, 0x7c9a8aa18db3aca5U,
  0xa49d8a9bae9f8b9fU, 0x82a68e98a1c6b1adU, 0xa3928c9e97898194U, 0x9ba38c9e8b98a1afU,
  0x978d8f9294a185abU, 0xa8a3949c8d9aae94U, 0x8e92919d9a9790afU, 0x99a296989ca29a92U,
  0x9f929f94a58a7b91U, 0xa7969d8d88a09794U, 0xa29b8b9bb08b9196U, 0xa1939d8d9290a5a7U,
  0x959c9f8c94979c89U, 0x77918b919399a1a2U, 0x94919398909680afU, 0x91a59f9f92a3a4a7U,
  0x9d9e9f97958e9796U, 0xa3a0949f8f999b94U, 0x9b9a9e9a979f839aU, 0x86a2888a88a6909cU,
  0xa1979e98939e929aU, 0xa4a49791999e9794U, 0x9b92919992998b8bU, 0x9d90929f8fa894a1U,
  0xa09c919491a190a7U, 0x739990a28c909996U, 0x8d9c919cb09791b0U, 0xab9a94949c8c9999U,
  0x94a29899a19ba292U, 0xa690a0989294a29dU, 0x9b8da3999989909dU, 0x8b9f8d8b9e939997U,
  0x8ca29295999a9a9cU, 0x81a2909e8494a3a5U, 0xa3a0958fa099847eU, 0x918b948a8aa895a2U,
  0x919a9494939799a2U, 0x8aa69ea2939b979dU, 0x96999492a08a9186U, 0xa7969b988794a4a3U,
  0x978c909a9f8c9eb6U, 0xa2969692929e8d92U, 0x96a0a19194989d86U, 0x8f8c949e8690989dU,
  0x8a988da09d9994afU, 0x809ea0a2a1958ea3U, 0x9ca38c90949e9aa3U, 0x9ba0a09d91a8a191U,
  0x8c9fa098949c9ba0U, 0x869e9d9e8d938e91U, 0x99a699a39989a7a2U, 0xa99f9199a1a68d8fU,
  0x918fa39aa19ca589U, 0x929b8889a29f9a9aU, 0x949a8a98ae879890U, 0xb09d948e969f9b94U,
  0x8d948e97828c96b6U, 0x8c9193a089a1a089U, 0x9590958b9ea096b1U, 0x918ea3a29b998e9fU,
  0xa398a290aaa1979bU, 0xa39491989b9d9193U, 0x9292949ca78c9ea2U, 0x86a08f9b9fa69a9eU,
  0x8ca295a49c97a39dU, 0xa8939a92a29490a5U, 0x90a58e8da78e8990U, 0xac989a8ca1a58990U,
  0x999895a29d92a99cU, 0x9d8b8e998fa2a0a4U, 0x979d9f999b889695U, 0x91a69c958ba3a393U,
  0x909e9b97a59c88a0U, 0xb89f938e8e958a92U, 0x92968f96a3979ba3U, 0xb3a598a09291998cU,
  0x9e969d93a59aa3a2U, 0x989495968ba998a2U, 0x8d999ca090909d9fU, 0x94908e8d91948d99U,
  0x9d939e8eb2989b9aU, 0xa3959092a2a38fa4U, 0x97a6889cab9392a4U, 0x958d95a189968da0U,
  0x978e8c9c9c9f8b98U, 0xb89d9c9597a29299U, 0x9985979e8d8e938dU, 0x988c8c91959b8b9dU,
  0x986a9e91929596a5U, 0x6ba38f8f8da29e99U, 0x8b72a19899929385U, 0x6d95949b9ea09686U,
  0x99808b90a18f9c95U, 0x79a2a09596a39997U, 0x90848da18b8f9c84U, 0x77a49890a79a898dU,
  0x99799f909287918eU, 0x868f9d908da3928dU, 0x907e898ba4a29c99U, 0x789193a4a9908b75U,
  0x967a8aa09d909d95U, 0x918f8c95a8a27e82U, 0x908089936a9a9292U, 0x7792a0a38ea1897dU,
  0x9b8090a27f969992U, 0x7b968d99a99a8885U, 0xa2809b967da29186U, 0x838f9889aca28376U,
  0xa2859b90ad899993U, 0x7b9a9d9099a0926aU, 0x9e889e9e98a18d85U, 0x83a295a194936968U,
  0x988c8c8b969b9c8dU, 0x77998f9aa39e9a74U, 0x98818ea56a8d8f8eU, 0x7e8c968bb0a4817bU,
  0xa4838d8c929d9a94U, 0x8b939f94a9a6766dU, 0x9c8a97986b988583U, 0x859ca39baf987d6dU,
  0x9777968aa7988893U, 0x8f978aa3a6938876U, 0x9d79a399849e868aU, 0x90929791aba16f7aU,
  0x8e809e97958e9d9aU, 0x919892a389a25072U, 0x8d818d93969f898cU, 0x84a1909ba5929067U,
  0xa18ca09a818f8a93U, 0x85a69c8cac8c6578U, 0x9385a28c899f9f8aU, 0x8da3949092918480U,
  0x8a8890908a899489U, 0x84979fa2938d686fU, 0x897b90987e9a8784U, 0x818f8f8f91907189U,
  0x9e72938b87918e84U, 0x7792a090a2966a65U, 0x9c72889e869b949bU, 0x7c9c9c92888e6776U,
  0x9a7f8c9d8e93918cU, 0x7fa5989b8c9d4b85U, 0x9a85a39294969684U, 0x8e9f9e908da0449aU,
  0xa1808e97909d868bU, 0x789c9aa092994574U, 0x9281a3977a889e8eU, 0x76a3a3a0959c807dU,
  0xa27f9c9ba18b9689U, 0x7fa6a09d8c8e4882U, 0xa18b8ca590899d95U, 0x878f9a94998e607bU,
  0x987d9a8b82979c98U, 0x7ca5a29289a39467U, 0xa07293959f948694U, 0x7c959f9d91a6607aU,
  0x8c768b93939b9693U, 0x7f919598949a536aU, 0xa373979aa5929786U, 0x7aa090969692696bU,
  0x8972938d8b958988U, 0x898d919a7ea47e73U, 0x9c8a989f90a28f97U, 0x8b8c918a858f686fU,
  0x8d7399928f989a8eU, 0x759b9c9392956176U, 0x897998987d9e8b8aU, 0x859d8a97a2a7757fU,
  0x9b8897a58d909993U, 0x88a291908c986680U, 0x9b7b9a8f838a9493U, 0x8ba48f979c9f587bU,
  0x9282888faf8b999dU, 0x80a58e9a8ca73885U, 0x9a8993a29f959c84U, 0x7d989fa48ea26f65U,
  0x998394a1d38f9c8fU, 0x7498a6967c946a91U, 0x93a1a5a2aca6a99dU, 0x6ea09d8f94b4b1a4U,
  0x99a6a698a9948298U, 0x87a59199a0c9abaaU, 0xa6a89897a99d8ca8U, 0x9ea1939aa0a69cafU,
  0x99a39f9c93947fa3U, 0x968d8fa39daab19aU, 0x969992a58d9d9e9dU, 0x91959a9190a9a395U,
  0x95969397a28f8d86U, 0xad9b948ea1a2afa1U, 0x9495919ba68e81abU, 0x979c9ca39ca39a9bU,
  0x9fa7a7989ba5918eU, 0x7f949a958ea593abU, 0xa3a4a39594908f98U, 0x7f969e9e9c93a09cU,
  0x9ca59e8e9c928c98U, 0x9f99a49a989eacacU, 0xa7a490a3a9959197U, 0x94979e8da19a8fa6U,
  0x8ead8f949ea494a1U, 0x8c928ea5929d9d9cU, 0x9c959c938c979394U, 0x91a7a5939ea490a4U,
  0x98ad929a878c8dabU, 0x6c98a5a78ba39098U, 0xa3979594ae8b97a9U, 0x99969a9e94a69691U,
  0xa2a38e96a5a59b92U, 0x9b9390988795a5a3U, 0xa1a9a29d9795a491U, 0x9d9c9e9595a2a99bU,
  0xa49394989ca292a9U, 0x768d9393899d9a99U, 0xa6a095a68ba49290U, 0x8fa194a48e939ba3U,
  0x91a19ca39a958e91U, 0x9ca799918c9c9da6U, 0x9f9995969e938b9fU, 0xa2a09ea493909297U,
  0xa6a6919e9e9598abU, 0x9d8ea6958f95a5a3U, 0x9b8ca39ca2a4a68aU, 0x8f9b9ba189a18c8eU,
  0x95a099a6959c98b7U, 0x838f91a69a8e98a8U, 0x9e99979a969e9e93U, 0xa795a4a2889e948eU,
  0x95a6a19c929c9593U, 0x859093a79aa8919dU, 0x9da29999a08e9bb2U, 0xb191a4a69b969c92U,
  0x9f9a989c8f9da193U, 0x8f909a9094a4a790U, 0x909ca09dac8f9493U, 0xaaa3929593a19d91U,
  0x92aca59e9c909eb5U, 0x8d8da2909a9c939dU, 0x92a7a59aab97acb6U, 0x909d9a90929a8c9bU,
  0x8fa29698a9999595U, 0x9ba495a5969ea49fU, 0x95a48e9da3969c9dU, 0x84a48d9a9694a6a0U,
  0x8c9f95939992ab9eU, 0x97a0a3909aa09e8eU, 0x919f99a7b093a2a6U, 0xb3a398a7a2a59c90U,
  0x9691a593b291a398U, 0xa38e91909c8e99a6U, 0x968e999aa0a5a99bU, 0x908f8b91968f9695U,
  0x95a199a7b5a28aadU, 0xc3928c8f9592909dU, 0x90af91a69fa09b9eU, 0xb1a1a48c959a8e93U,
  0x8cab8d9eaa8e8ea0U, 0x91a0a49ba3918f98U, 0x97a59e96a59a978aU, 0x85a69d91a1a6939bU,
  0x92a890a0ad9ba99cU, 0x988f938ca49d959cU, 0x96a593989b9194a2U, 0xa19da092a0a69f94U,
  0x97a7a496998d9aa3U, 0xb3a0a08e9c9f9d8eU, 0x8c989ba29d9b999bU, 0x92a48f979d9f8da4U,
  0x8f728e8e918b96a5U, 0x6ba2a19d988ca78dU, 0x9a7ca5a48a958989U, 0x64a69fa796a48e99U,
  0x8d83909d9e9c9696U, 0x7e958da18a999b93U, 0xa678919088969595U, 0x76a6998c9a9b7c82U,
  0x938e958e7fa58e86U, 0x839395979791968bU, 0x8c8a8f9ba2919b8dU, 0x8c9493a69ca2987dU,
  0xa67e9ba7949e908eU, 0x89929a949e90908cU, 0xa476a29d6f9a9f94U, 0x8f95a58da99b9089U,
  0x928a9f9e74999985U, 0x7f8fa290a691958bU, 0x988b978e7c8b8f8cU, 0x79929092a99ca27aU,
  0x98809a9fa19b9489U, 0x8a9ba0a7a99d9075U, 0x9584959d7e91918cU, 0x84a5a3a49ea77284U,
  0xa1799e938b9a8a8fU, 0x839f9b96af95a88aU, 0x9a88a2a4738b8e91U, 0x88a2949da8a98c82U,
  0xa37b8d9c889f9285U, 0x77a095949fa87277U, 0x8d82a6a67a999e7fU, 0x8b8da492aba27585U,
  0x8c779f9faa979b83U, 0x8fa29fa49fa18679U, 0xa48b90918d9f8d7eU, 0x82a59692a09f8784U,
  0x928e9e9e939f917eU, 0x8a9ba4a68f9c7074U, 0x9d859e999392a288U, 0x7b9c9c8fa7938882U,
  0x957fa79a72a28888U, 0x7fa18ca794906c81U, 0x958b999a938a9e7eU, 0x7b9094a796a59782U,
  0x8e89a09c9fa28693U, 0x88928ca5968d7287U, 0x917b99a77d8e8d90U, 0x74929d96a6987a91U,
  0x9b83949399a1918aU, 0x869c9fa2999a7980U, 0x8f8c969e99959280U, 0x79919f90869c727cU,
  0x9e7f9e987b9f908aU, 0x89958d969d95648aU, 0xa67c97a0ac9a978aU, 0x8ea2939896a04f88U,
  0x978ba7958e909492U, 0x74959ca49e9f537dU, 0x99929ca1838b8885U, 0x81a499909498917aU,
  0x9d7798928e8fa180U, 0x89a68c9c93955a7dU, 0x958ba0a2878b8981U, 0x8d9a9b99979d5f7cU,
  0xa3798e8d91a38d7dU, 0x7e9a9d8c9b9fae68U, 0x94859e99a29ba17eU, 0x8c919ca394a56d67U,
  0x9b789ea493a4a291U, 0x769e92a1a3a55883U, 0x968c9f9c93a3888cU, 0x7a9ea49f8f92807fU,
  0x9f8a95a390968c83U, 0x88a792a279999073U, 0xa07ea3a0858ea094U, 0x7aa691a48a8e786fU,
  0x8f85a599998b887eU, 0x8b9a8fa58da4717eU, 0x9685a48c798d9b92U, 0x8995979b90a9896eU,
  0x9477a4a382a18c7eU, 0x728ea49d809b8282U, 0x928b96988e9d9d90U, 0x88969e9b87a86685U,
  0x9879a492a5a58e97U, 0x83998d9f94a84b81U, 0x917aa39fa38a9a85U, 0x859aa3928ba06f6eU,
  0x988d92868f979087U, 0x908d909c9e9a9b8fU, 0x8b9f8c8c8f979899U, 0x9a939a8b9e95969cU,
  0x989d97938ca0a097U, 0x899b8ea28e89989cU, 0x8a9a918998988a8dU, 0x8f898f8a8e888c93U,
  0x9796929d8c8b979aU, 0x9c868998899a9795U, 0x939e8a898c97958dU, 0x9691a09c9f91989bU,
  0x919ba2a09d92979aU, 0x9e899595939295a2U, 0x9f9f999d8a9a8993U, 0xa0939392a28e9da1U,
  0x8f9d9c898d9fa1a0U, 0x879da0a1998f8e8eU, 0x8c9aa19c8d99969eU, 0xa1a28d9fa0888d9dU,
  0x8a8b939787889897U, 0x9fa189998c8f978eU, 0x939d9c8c9b96928eU, 0x9a99958c9a888b88U,
  0x9286a1a18b8fa188U, 0x8a94a18ba18c9599U, 0x8ea190929c9aa194U, 0x948f95889797889aU,
  0x89939498969c8b87U, 0xa19a919d898a958cU, 0x9c8c898793869b90U, 0x8a9694959b88a096U,
  0x91898c878d88909cU, 0x989087928f8b9289U, 0x8aa198919391969eU, 0x9e8f949596989d97U,
  0xa19692968c9ca188U, 0x888b8a8f9c9f999cU, 0x9a96979d8b90918aU, 0x949f9ea09e9b979aU,
  0x9e96968e92928787U, 0x8e9c9a8c968e9694U, 0x8f898790878b928eU, 0x9f99899b9e91a291U,
  0x9c9b9d989d999589U, 0xa1999d9486989c96U, 0x8b9c908c92899c96U, 0x8e9f99929c8f9fa2U,
  0xa2958b889a958c97U, 0x8e9f8b928d8c889bU, 0x888b9f939a9d9690U, 0xa09f908ba29b999cU,
  0xa18c8e8c9e9c9c93U, 0x9fa194879b929f91U, 0x969c8d9e91969494U, 0xa096928b8b898a9aU,
  0x8f938b98949ba188U, 0x9da199998f979688U, 0x928c979296878a92U, 0x8e899a9098979a9cU,
  0x94a19b928e99878eU, 0x989f93998e949a8aU, 0x95929891988d9793U, 0x9e91918d878b889bU,
  0x8a95a08d94919b8aU, 0x8f908f9f92a18e9dU, 0x9e9790a090979e9cU, 0x8f988a979b8e928aU,
  0x989b929d98919692U, 0x918f9ca28a8e9c95U, 0x979d9f8c898f9b91U, 0x8da19a8a8f928b89U,
  0x928c8a99919d8a96U, 0x9b91968c8792899bU, 0x9f9b9b9097908a94U, 0x8c87889d94929e91U,
  0x979c868f89928d9aU, 0x89909f979589919bU, 0x9686978d9fa295a2U, 0x879197988a9a9493U,
  0x8e8999928c948891U, 0x948d9f919a96948aU, 0x9f9d939b8c878b8fU, 0x939095918f9b9c9bU,
  0x958f8695878c959fU, 0x9b908b8c8da18b8eU, 0x8f909e979d8b9a94U, 0x968a92919a9b8d9dU,
  0x8c8aa190958b8a98U, 0x90879a8f9e978f8cU, 0x949e9a908b9d8896U, 0x949099918792989cU,
  0x918c8997998c869eU, 0x8d95958f9b9e9991U, 0x949b8a899e988e98U, 0x86a28d9a9c87918aU,
  0x8e91a199a1879d8bU, 0xa1968d9b99938c9dU, 0x92949e889b9096a2U, 0x938c8897939b9da0U,
  0x96889d889092a08cU, 0x948c9d9c9b9c938eU, 0x899097869c8f8d93U, 0x959987a1899ca28bU,
  0x9da2949e95939498U, 0x8d9fa08c97898b93U, 0x8b978c8897969a90U, 0xa0888792a1989e97U,
  0x8c9389898f97899bU, 0x968f9da0948ca18eU, 0x9ba19a8aa1888ca0U, 0x919d9b88879693a1U,
  0xa298948e92898ca1U, 0x9f9494928a99958fU, 0x8b8a8d8c94938c9eU, 0x8f908e8b8c9d9c8eU,
  0xa08c879ca19c89a1U, 0x9b978a9ba18e9891U, 0x949f9b92979c9892U, 0x9d998b93879a9096U,
  0x9f97879f96929c87U, 0x8c8e9b909b8f8e9bU, 0x9e96918c95889b95U, 0x8c8e9c9e959b878fU,
  0xa2999fa1908a9a9bU, 0x878893939a91969eU, 0x89999b9b888f8ca1U, 0x959d9b989092878bU,
  0x8799909990878a91U, 0x9196969893a18795U, 0x9f95988f899d9b97U, 0x8a888c9498989596U,
  0x9aa18b8f8a8d8b9eU, 0x93928b919ea28fa1U, 0x8aa18e959b899b99U, 0x94969c939593978eU,
  0x9897a193949a918aU, 0x998d928b8d998988U, 0x8e9f8b9c8c98999dU, 0x8c8a8d8d99908790U,
  0x9f928b8a9698968cU, 0x899c8c989e8c9e9bU, 0x8e8d8b9991878997U, 0x9788a0928e878c9fU,
  0x8b92969ea08a9b99U, 0x87908fa09e8b878eU, 0x9fa0988b9d9c8fa1U, 0x91939e8b9c92938dU,
  0xa193999090919a9bU, 0x8da193988e8b8a96U, 0x9f9e91a291a18699U, 0x9a8d87979e928e88U,
  0x92a09e99899e9a88U, 0x9093938c96a0908cU, 0x9390a18894a18a90U, 0x899488898c978da2U,
  0xa287878e908b8793U, 0x8e919399889d9b92U, 0x8b9e9192898d899dU, 0x8e898f9a9b938e9bU,
  0x9399a29c8d8f9e8fU, 0x9d95969b928a949cU, 0x97969a8b88939b8aU, 0xa1a18c929a96a295U,
  0x9993938f8c8b988eU, 0x93a29f9f929d998eU, 0x9d8e9f90a0949d8bU, 0x9b9b9d8f9b998c8eU,
  0x9f999293999f878bU, 0x908e8d919c898e9cU, 0x96888c8a979693a0U, 0x909290909fa28b9bU,
  0x989e9f9f8b9c9d9aU, 0x8ea1a08e9f89a0a2U, 0x899888a18f979b97U, 0x948a9d97958c998dU,
  0x93889a9da29d9e8cU, 0x9a929da09da08a87U, 0xa1979c958e9395a1U, 0x8e9798989092988fU,
  0x999c88988b959a96U, 0x8c99868b989d8794U, 0x9a989d979391a0a2U, 0x9692a0868b919c93U,
  0x8f9e8d9a949d9095U, 0x8e95988e859b869cU, 0xa08e9d8b999a909bU, 0x9a8a9289978f9588U,
  0x9e8fa19aa099a090U, 0x9a9a8f898c958c86U, 0xa099969198939e9dU, 0x9d998b938b8e858bU,
  0x9b968e8c868d8a97U, 0x969b918c899e8891U, 0xa0968a929c9f8aa6U, 0x8d8a8997978e9b9eU,
  0x87888990a4979997U, 0x899e979290968f89U, 0x9b909b8e9698888fU, 0x96898b879d939098U,
  0x898f859ba396978cU, 0x9c8e97939d968a96U, 0x938b9394909ea59dU, 0x86949c988e8c9e9cU,
  0x9e898c8c9795949aU, 0x9c8d898b8c959695U, 0x8c938b9e9799a18dU, 0x8b8d8d8e9c948c88U,
  0xa193a09e978a9d90U, 0x899d8d8e97a08c8fU, 0x969d869c8a909ca0U, 0x91999b96978b8785U,
  0x878a9da08d9d9796U, 0x868698939e98918fU, 0x999397a0949590a1U, 0x87a09992919f9c88U,
  0x8e909e879487979bU, 0x8b989796928f9592U, 0x9195969997889c90U, 0x8e878d9f998ba09cU,
  0x9c86868c8b9e9490U, 0x9c9a9c958e8d9394U, 0x8f859f868d9b9192U, 0x9286909d918d9c9dU,
  0x898a8b8d91998994U, 0xa29388879a94919fU, 0x938c968b909a8a9cU, 0x9886a09d878d8c8eU,
  0x91878ea0a4a19f9cU, 0xa18a8791979d8c9cU, 0x878c8c86908987a7U, 0x978a95978b918f92U,
  0x9b929f948c968f8cU, 0x93888e8d9495918fU, 0x9f908c8d948d969dU, 0x9693a19898978e8cU,
  0xa09092898a86919fU, 0x979c9e8e9a8e9f95U, 0x8d8d9b9998898f9aU, 0x979b8f9292a2959eU,
  0x929b93978c909a97U, 0x9091868f9a9e948cU, 0x888e908f8b949895U, 0x8a9f8a878a979e99U,
  0x948e959f8f98989cU, 0x8999879490a09c9fU, 0x8d9389989395a0a5U, 0x8c998d9e89899895U,
  0x89a0988f8b928b9cU, 0x988b959c8c948685U, 0x889c938b9796959eU, 0x8a869c8b9e9d9289U,
  0xa186869e9098a49aU, 0x889c94a08b8b8b93U, 0x93898c909f89919cU, 0x99939b8d9a99908fU,
  0x9b989c9aa29f9998U, 0x988687929c9a9290U, 0xa0899a9d9d98a29cU, 0x9b91888f968a998eU,
  0x919e9098948d8a99U, 0x888a878b95969393U, 0x9b9e938a9d9f8594U, 0x8ea19396938e9f95U,
  0x8b979f929c8d8d9cU, 0x928f8f9589969399U, 0x979393929e8c9aa1U, 0x919e969a90929f8cU,
  0x9e8c8d9a99868891U, 0x9c918a9093979297U, 0xa0949b9e9c9f94a4U, 0x869f968d91939b99U,
  0x9e9b8787a39a9b8fU, 0x908c86999391a089U, 0x8b9995978b95938cU, 0x979c9786968d9b98U,
  0x8b9f9a919f8ea4a3U, 0x99869e9b9197898aU, 0x9296909ca4888b90U, 0x9e95929f958ca089U,
  0x95969c95998ca19dU, 0x9a8a9c929997928aU, 0x949a98988a8895a2U, 0x9b9595968f8d9495U,
  0x9f968d899a889e96U, 0x959b8e8b8b8e9287U, 0x92a191909f869f98U, 0x8e8c91979e979e93U,
  0x879f87879f9d96a5U, 0x91a196948ca49d95U, 0x999b92a0918e8a99U, 0x8f9c998d9a8d8e8bU,
  0x8a958b8b999b9d8dU, 0x8e948a989c8e9291U, 0x9f928a879a8ba1a5U, 0x998992909a8a9088U,
  0x949a929da5889c92U, 0x979b938e948a9495U, 0x8a9f9e97a19e8c91U, 0x9f948d959a929488U,
  0x949b9b8b979ea29eU, 0x8c95a18e97928c90U, 0x89969a969d9e9d94U, 0xa3a19b97908b878aU,
  0x9fa58c9d93929d91U, 0x99a09b9b9d938696U, 0x8e928d989c8da58eU, 0x9e86939a998d978eU,
  0x9da3979e9a95a1a0U, 0x9da0878d879a8f9dU, 0x9d979e8d9f9a9499U, 0xa3958a9f9f949c86U,
  0x9092a0959494999eU, 0x9e8a868e95959c95U, 0x8893879795878d97U, 0x9a8a9d8a9590929eU,
  0x879b8c989396a192U, 0x9699989b9f9b9489U, 0x909a8c8f8c9ba29aU, 0x8a9a9a958b988d8cU,
  0x8aa4978f8e879b9dU, 0xa39e8a989f8d988bU, 0x8a9e868b9f9b8aa1U, 0x9791a18f9197888cU,
  0x9f939c98a0998d9aU, 0x939ea1879f999394U, 0x9b98939f97a0a4a4U, 0x9a8f8ba09396899fU,
  0x91a28e928c919394U, 0x9e8c94898b9e8b8cU, 0x9e8f9e9c9e9b8ca1U, 0x948e8d9a968fa19cU,
  0x8899959ca086a095U, 0x958b8c8aa097889fU, 0x868d95969b9f8ea5U, 0xa19989999f8e868dU,
  0x908c9995a29a928eU, 0x8f879a869d939b99U, 0x898d8e8d9c929f95U, 0x8a988f8a8d9fa190U,
  0x9892a18ba094a48eU, 0x8b8e8b9f8a949289U, 0xa09f8a8c969b8fa1U, 0x928e9d9098918a91U,
  0x919c9e8c8f8b9c93U, 0xa59d908e879ca087U, 0x868f8d92a08d8f90U, 0x9b9b8b96969b8f8aU,
  0x8c8d9d868b958c99U, 0xa58f8b97998c999bU, 0x868fa18c89988f9dU, 0x8e9fa09a978e999fU,
  0x9da08c8f9d9c9692U, 0x92858b939e8d8e8dU, 0x948f8e998e8994a3U, 0x9b909d919d999c89U,
  0x8f98869da396938cU, 0xa5869399888b8d9dU, 0x8ca6878691888c96U, 0x9e8b8b88958f9aa0U,
  0x9f8a87a188918f92U, 0x8e9394888b8f9692U, 0x89949b8f98999a92U, 0x8e9a9e86868c9d9bU,
  0x868c9788878e988fU, 0x9a949686938e969fU, 0x9e9c9d9e92978893U, 0xa09096918b8b8a8fU,
  0x909e9886919b9e87U, 0x9988a0868e978f8bU, 0x888c928ea188929bU, 0xa1889c89998b9d93U,
  0x998d8792989e8c94U, 0x929591868ca0989dU, 0x8a9f9e8e979da09bU, 0x95a193a18d939d9dU,
  0x9e899b919c989189U, 0x8e8e99968d89998fU, 0x8da0a08a929a9f9bU, 0x9f898c89969c9f86U,
  0x989496949b9e9197U, 0x8c929b8d8e96888eU, 0x9f8b9c9e93929b98U, 0x9691899488989f9dU,
  0x8b96908d9f8d909aU, 0x8c9588958ba1939bU, 0x958d889a9c9495a0U, 0x9d8e94979a9a8f9eU,
  0x8c93868da1889d97U, 0x85958c979c8d8d8fU, 0x939d9290938c9b8dU, 0x9d8e958d918f8b91U,
  0x889e8f9b9f959d8eU, 0xa09788a194958ba1U, 0x9489899097939c9cU, 0x9d8fa0998c93a186U,
  0x998f898c9b928695U, 0x8d8b9d919f938998U, 0x8a8e88909e9d8895U, 0x8a918e8f9c8e978cU,
  0x899e999a9198909fU, 0x8b99988b999e9197U, 0x9c8f88889a908c8eU, 0x959a898d8f92a09eU,
  0x889b99938c9b9496U, 0x899a99859593988dU, 0x8b9197908aa18b8eU, 0x90969a999088949dU,
  0x8f899797a08d9c86U, 0x929d9f92a19d8da0U, 0x8c899e988c9e858eU, 0x949296889e899d98U,
  0xa1878c8793998e97U, 0x8f9287939b8d9496U, 0x9f9388969d95989cU, 0x8c949390a19b939eU,
  0x978a9c8f8e8d8d9dU, 0x9a9c9b979194869dU, 0x8a86868a9f869a94U, 0x90938f9b8b9f9494U,
  0x9f959f8c988e8e8dU, 0x8a94998a899d9697U, 0x9399928998988e9dU, 0x999d95959e998e9bU,
  0x9a90939f92a08c9cU, 0x8887a0999f9c9a9bU, 0x999e979b8a9a9294U, 0x929f8c9b8e94959dU,
  0x9387a0949d91979fU, 0x89918c878f8d8aa0U, 0x9f9aa09b9c889e97U, 0x969a998a8f8e9388U,
  0x968f8d9f968d949fU, 0x959492989b988696U, 0x909c928f999f9895U, 0x8b94929f90988888U,
  0x8c9e8f8aa0a093a1U, 0xa1959c938b9f98a1U, 0x869d96a0879f9b8cU, 0x918b879c9b8d9195U,
  0x8b999f9a97968b89U, 0x90918ba086919393U, 0xa09796a18791a1a1U, 0x998a9da19f959a89U,
  0x87888b989a97939eU, 0x9d9da19292969486U, 0x918d8989918d9b89U, 0x89919d9592879d90U,
  0x898d8b9b96919498U, 0x9e8a8b8c8e8c97a1U, 0x86928d979a9b9793U, 0x9b91998a96879996U,
  0x93939a9c938aa194U, 0x968b959a908c989eU, 0x999492939a879a88U, 0x98a18f949f9d8896U,
  0x989a8f919f989490U, 0x89889d958f8f8791U, 0x9a89899290919f98U, 0x9b93998c8e9f9b8eU,
  0x9da19990a1948991U, 0x92a09491939b9197U, 0x998a988e8c938795U, 0x9e9090918988908cU,
  0x87989e898a889891U, 0x998e8ea188909698U, 0x8e8f9e879c91989fU, 0x9c8e95879a8ea09cU,
  0x99888f92998d9a8cU, 0x8d9d8d8b9798949fU, 0x98989d96a08d909eU, 0xa19b918f928b9194U,
  0x96868ca09091908eU, 0x88898a96899d8693U, 0x97939492878d8c97U, 0x8a898f9696948697U,
  0x8889989b968c8d95U, 0x9d908f9da0968b96U, 0x91979e879f8b9b98U, 0x8e989ca088898894U,
  0x8c9593989287978aU, 0x8799879d959b8d93U, 0x99898a8c8b8a8a8eU, 0x8e9c998b93a1909cU,
  0x9f91909d9a8d9f97U, 0x8692869a9e8a9f86U, 0x92a18e8e8d908b93U, 0x8687939c9e8f9e86U,
  0x9e8c928f91a1a08eU, 0x969b978b989b868eU, 0x9b97879d8889a088U, 0x9f9595a09b96a09eU,
  0x979988889195918aU, 0x9e90999a9b988e8fU, 0x8a8c998c96999f88U, 0x9f9f868e8d909ca1U,
  0x94a09d89899f9d99U, 0x9386898a8788898eU, 0x948aa1988c929d91U, 0x939e9698908a8e9cU,
  0x96998c948a928b8eU, 0x8b9e929793968a9fU, 0x87958a9d9e91a08bU, 0x9c9586989c9287a0U,
  0x878b939f89959893U, 0x86a09c928c929d9aU, 0x8b94939b9c9f8688U, 0x8e8c9ca09e878797U,
  0xa1919197869a8c97U, 0x879c8688919ba09cU, 0x9c989c988997998eU, 0x86a09e8d878e8da0U,
  0x8d8a969c959f8791U, 0x918c8d9e96a08a9fU, 0x889a968c8a8e8790U, 0x898c93a19e939e98U,
  0x9d94939897959993U, 0x8c8e9297968b9388U, 0x8c998a9f97918d8cU, 0x889e949c8c9b9ba1U,
  0x9e9c98949b958a9eU, 0x949499858f8f9d95U, 0x8aa093959b8f8d95U, 0x8f919d9588989a97U,
  0x9f8d968c8696a198U, 0x9c9c8e8a9d9e9188U, 0x8d96989d9d999097U, 0x9c978c89868a8794U,
  0x9e9887979d968689U, 0x9e969e909688a092U, 0x8f8d8b9e96968c9cU, 0x98879e8a8b989a8fU,
  0x909d9f958d9a8e96U, 0x888993958ca09e9aU, 0x9b8c9b9a868e8890U, 0x9c9888909ea09e94U,
  0x87a18f939092958dU, 0x898a99928f8a9998U, 0x88879c8b9096a09cU, 0x999f99988f929b95U,
  0x968ca199898b8f9aU, 0x979a90999aa0899cU, 0x9b95878c92959d95U, 0x96a1988892969187U,
  0x99a19c9c90878e90U, 0xa0a1888c97888787U, 0x959ba19b988d91a2U, 0x9494a08c87a1889dU,
  0x93a1939f8e988d8fU, 0xa0999d879c989888U, 0x97919b8a9d879f95U, 0x9f8c9d9c9e9a969eU,
  0x94949d8e9a8e868eU, 0x9b96999c87949788U, 0x939e9897979d9797U, 0x908a888e9b8e8b91U,
  0x949b93918e9c9e99U, 0x89a1a09d9d9a9c98U, 0xa1988f8f909c89a0U, 0xa18d8b9295868a9aU,
  0x8891938d8d95938cU, 0x959d878f959c8c8cU, 0xa19a898f8b9c9d8cU, 0x899f989795999394U,
  0x9393879089a19090U, 0x9093898c958d8e8cU, 0x95878d96a29e9c88U, 0x8f9e8aa29a9aa08eU,
  0x8787918a9f9aa18fU, 0x958a9d8c9d9e8a90U, 0x8c8a9b88a1958990U, 0x9e8b888b97899391U,
  0x9a908e908d9e8891U, 0x87928b929b9c8996U, 0x929e998f94a28a97U, 0x9688999d98908988U,
  0x9f8e8c9f9ea2889cU, 0x8f8d8a88888f9586U, 0x97959c888f99979aU, 0x9e918f8f8d8a8f86U,
  0x9e8790a18a9d9c96U, 0x968ea08da18c9890U, 0x9f9ca18e8a8f93a1U, 0x9d9d889297989c9fU,
  0x8a8f8a989b879591U, 0x9f8b9e9d888e9894U, 0x8e90a198929b9795U, 0x95a0a29b8e99898dU,
  0x9c91978e8b899c8bU, 0x9d9088909b9d9a87U, 0x9d87a18f9c9f8b8aU, 0x9795948f9d909a93U,
  0xa0a18e9d89959b9cU, 0x879493a09d908a97U, 0x8e93968a939e9293U, 0x909b9c9f9492a194U,
  0x9587918c9c8d9397U, 0x8d98889b9a889a92U, 0xa18f8a9b9a9e9991U, 0x919c9e938c87948fU,
  0x93989a89968d9193U, 0xa194908f998b8d8dU, 0x989b988a9690929aU, 0x92949499929e9290U,
  0x9e9589938e918b95U, 0xa18c989e8f918990U, 0x8b959e9b88978a90U, 0x95a28d87889b9993U,
  0x8994919595958890U, 0xa094968b999ca197U, 0x9590999b8d919492U, 0x888b908898928692U,
  0xa295a09d968c8c87U, 0x9f9d99969a9f8e90U, 0x8d9ca29488879b8bU, 0x9487a18c989d8d9eU,
  0x94a0928687888c8fU, 0x8ca0938d8d929c8bU, 0xa09d949a938ca29bU, 0x898c9889898e9c9aU,
  0x9688999f8d8a8b98U, 0x91a286a0948e8e9dU, 0x9c8d979a8c95a195U, 0xa0a0a0918e97978cU,
  0x8c96878e898fa191U, 0x9699a086889d999eU, 0x90998a9c938787a1U, 0x898b878a8f98a298U,
  0x8a98919a9f95889aU, 0x9896879a88949594U, 0x968c918b999a9aa1U, 0x939599898e8a8da2U,
  0x86899fa08e9f9c90U, 0x9798a09f8c9c8c93U, 0x98919f8e8a9e918cU, 0xa0a097969b899f92U,
  0x958f8da1a09b979bU, 0x95938b8c8d8b9e9aU, 0x9d8b988b9e8a8c90U, 0x8f979e969d918e9fU,
  0x86879298a19c928aU, 0x87988a938ea19697U, 0x9b929c9095989b91U, 0x979d999f96929f93U,
  0x9e8f9b998890889eU, 0x8e9ca099928b8d8cU, 0x8ea08d9c878c9b9bU, 0x8b94a2939b9a8c97U,
  0x9b8d93989489989bU, 0x8d998c928e969787U, 0x8f88908d88a19b93U, 0x8a9a8b8da09f8e9bU,
  0xa1888d979e929d96U, 0x88a1959c9796939aU, 0x908788989f99939aU, 0x968b949a9f909aa1U,
  0x978b9e948f898995U, 0x99979087888a8e98U, 0x9d8a87a08c919396U, 0x9f90928b92988d96U,
  0x9d9a8b968a958990U, 0x97879a9e9e89928fU, 0xa18d978d8b93a0a1U, 0x9e9c9fa089989896U,
  0x9f90a09d9da09092U, 0x958e9a9498899e92U, 0x949a8895978c888aU, 0x9d869b90998e9da1U,
  0x9197929c9a90908fU, 0x9b9c9a8b9f9a9993U, 0x8696959086869a8dU, 0x9f8e9798929b9d9dU,
  0xa29c88969392979aU, 0x97949294918d9e95U, 0x8b9c9a9194a29c92U, 0xa1919c8a9e95988eU,
  0x8d9e868f8b90879fU, 0x93929b9489a09094U, 0x978d9390949ba18fU, 0x989386948a919c87U,
  0x93898e958e949e99U, 0x93a0899688a29889U, 0xa09ea1948fa19e8cU, 0x8697919a979a929dU,
  0x8692918e8e8ca1a0U, 0x9d9f9c929696a199U, 0x9b8b9f9a9788868cU, 0x9a8895929a9b9e92U,
  0x8c8f9e8e9692968dU, 0x989f97888b9f9e9dU, 0x93879c9a9999919fU, 0x8ba19b9c9e8c8f87U,
  0x9f90978f88989d9fU, 0x99939fa09f87979aU, 0x8f939f959a969f8dU, 0x898a98968b9b8b9aU,
  0x8c90968a93978b90U, 0xa08a8c98a09ba292U, 0x98a1918c9f8e9d9cU, 0x999a899c909ea188U,
  0x8c9b9f9e8ea1929fU, 0x95939fa19e999787U, 0x9f958b87a0939e8aU, 0x8b8b929f9c8d9a8aU,
  0x939390a08f999e99U, 0xa092a09592909796U, 0x9089999595988697U, 0xa194889f978b97a0U,
  0xa1918f978e998c99U, 0x9d938da09f919f99U, 0x8c9c8a919d8f979fU, 0x8e8d878e878a9c93U,
  0x97979393948e979fU, 0x8a8c8e989e878a8dU, 0x8f888e928b908d9fU, 0x908a899096998d95U,
  0x9e8797978ca18e8dU, 0x8b978d91969aa191U, 0x9b999b898a899c96U, 0xa2948b898f8f8b9dU,
  0x8c7c858bec9aaa98U, 0x71a69b9c7b905d78U, 0x99a9869cb38ea790U, 0x80959c8d90ba9aa0U,
  0x8ca99297b9938ea1U, 0x839a8e929bc5a3a2U, 0x98929a9a9f9b8aabU, 0x88a59f8e8a9ba0a8U,
  0x908f99a3ae918aa3U, 0x99a49fa19fab979fU, 0x889d9c98a894939eU, 0x8ba29b949ca7949aU,
  0x959f88a5a68a8583U, 0xb09c9f9f9aa4aca2U, 0x9c9a9a8dbc9d98a2U, 0xa89aa18f988b979eU,
  0x90908494919b9da0U, 0x7a8d928c979b92a0U, 0x8fa087a19f9a8c9aU, 0x7f9e869a9aa19ba7U,
  0x89a3868ea3938e9bU, 0x9b9b879d9aa7a8a7U, 0x9fa28498b0859990U, 0x8792968887a39697U,
  0x9b9f8aa39d858c95U, 0x96a6998a9b92a09eU, 0x889b9993938d8f91U, 0x9ca68a9c91aaa592U,
  0x969a879c938e8c99U, 0x8592889095a597a1U, 0x8da7949baa8ca6afU, 0xa6918f878e989d9bU,
  0x85999c9e9c96929fU, 0x9e8d998da193988dU, 0x8e958397908c998bU, 0x8aa3979f9e9f9d95U,
  0x969a9d8d9a938d98U, 0x70969da09193958fU, 0x8699939e8e9a8384U, 0x82979291a3959099U,
  0x969f899a888da084U, 0x989b9e8f9c9e9ca2U, 0x9099829c9c8c8981U, 0xa69a9b8a8a90a5a1U,
  0x9b988a99a4879dafU, 0x9b9a978c958e8f8bU, 0x88939d99a187968cU, 0xa38e8e91858f999cU,
  0x8ba59b928b8b8d9bU, 0x7e9a9396a39a9ea5U, 0x89919b93958f90a2U, 0x9e968a888da49aa4U,
  0x86a18ca3929e9e9fU, 0x8390898c8ca78da1U, 0x9c9a9397a189a39dU, 0xb39d948c948f8ca4U,
  0x988d868c9786a086U, 0x94988e9e99a49994U, 0x9fa58fa49e8f9b8fU, 0xaaa697868b9e9e8eU,
  0x98a3979f8088aa99U, 0x8da597988f9e8aa3U, 0x92a38aa2a298ab9bU, 0x98998a8990a19295U,
  0x9f998ea1a297a58bU, 0xa3988b8e9eaa9f92U, 0xa0959b949e99958dU, 0x8d90869d9da1939aU,
  0x8c9488a59c8fa591U, 0xa3a79c93909d9c9bU, 0x96a198a1a087929aU, 0xb499948c9093899aU,
  0x879694a6b29e9da5U, 0xb29f9e948d99869eU, 0x989d979fa38c978dU, 0x98a69289a3a28ba4U,
  0x988d9b9fb39991a4U, 0xb3909a86a09c9ca2U, 0x88a99391b284a08fU, 0xb993918b9b939a8eU,
  0x94a4859caa9b97a2U, 0x8fa59193a1938aa0U, 0x8f9695909098a797U, 0x82988b979d94919aU,
  0x958d92a5b08e9897U, 0x928f979c9b939c9cU, 0x90989394989e9f9bU, 0xa493998b9f9f918fU,
  0x9d9a9697969f9d99U, 0xb399878b979a988dU, 0x9490929883849c8bU, 0x8997898a93909090U,
  0x926a91947e909498U, 0x669c9c92a09ca099U, 0x9975999b7c949592U, 0x6ba7899e90a59799U,
  0x8e6d869a7497a5a6U, 0x80a299909e90888cU, 0x88738f9b7d9ca79fU, 0x85a59f94a0907d7eU,
  0x9b76959b7095919bU, 0x8b9b8d908ea98d8dU, 0x9d688b9e9d9aa594U, 0x79989e98a6a59374U,
  0x9d739a947a9c9ea9U, 0x91a48993ae97708bU, 0x917a8aa182938da9U, 0x7c918b9e9baa8a7eU,
  0x8d6a839760919ca2U, 0x8e98919ea2907a7cU, 0x9778978c8690909bU, 0x8b908c93ac999783U,
  0x8874939996988fa9U, 0x7d908a97b4a9776eU, 0x9080848d89a0a6a3U, 0x8596958ea290657bU,
  0x97749e927b8e8fa4U, 0x918f97999fa49389U, 0xa16792a173859399U, 0x829a918ea6a0737fU,
  0xa06e839b8f88a494U, 0x8c98929ba9985b7eU, 0x8d6d9690759492a9U, 0x8c9f928eb7a06f7cU,
  0x937a999d9d8f97a3U, 0x799f9988ada57362U, 0x98799ba2809596aaU, 0x829c949cb0a9817bU,
  0x8f7c83969293a29dU, 0x7798969d9ca1447cU, 0x8e78939b8f8b95a6U, 0x899a9d87a4967976U,
  0x9d7a8e8c798c97a5U, 0x7a969898aa935b6aU, 0x9267838f879fa69bU, 0x82938e8b8d9b766fU,
  0x897584978b92939dU, 0x878da091ac994b7eU, 0x8775938c768ca498U, 0x7ea19087aeaa5f83U,
  0x9c6790a07b8f99a2U, 0x848e9ba1a9925566U, 0x99818b998787a898U, 0x79919d9f8e9e5a79U,
  0x8972908f798ea79fU, 0x909b8b9793923874U, 0x917b8c929e92a495U, 0x8199939b9baa2d81U,
  0x987c838e8e8c9c90U, 0x899c9088ada2336eU, 0xa16799967c8c9790U, 0x818d8c8995936a5fU,
  0x8b7f879c969e9e93U, 0x829b909088954a7fU, 0x8876949e9094a59cU, 0x8ca29199a9a43072U,
  0x987994a5899ba3a9U, 0x8c8f9888959d825eU, 0x94768399a18597a8U, 0x82a38b9b9fab4857U,
  0x9481868f998ba3a5U, 0x7d94948bb0a83a6eU, 0x92699590859ba5a5U, 0x8c8e978b9daa4760U,
  0x8f6e92a28a9da59bU, 0x83938c998699626cU, 0x8b7c9999798d8f9fU, 0x8293918c7f9a5d62U,
  0x887c888e98888f9cU, 0x819e9e9e94985376U, 0x8b799b91818e8ea7U, 0x849189919f9c5d76U,
  0x9978978a7f999a9dU, 0x7fa18894849d6c74U, 0x977b9497748a8d95U, 0x78948fa19e914a65U,
  0x86679295aa929e9bU, 0x89978c9984963273U, 0x9b748f98998ea4a9U, 0x7e8e9f889f915058U,
  0x9a909a9f92999186U, 0x6f949e89a3999d9cU, 0x989f8a9d889c8b8fU, 0x7f8e9091919b8f94U,
  0x9f849798889e8695U, 0x8985869b9a9b9397U, 0x8e9789919a8f8f8eU, 0x89989a989c859a83U,
  0x9c89a1869aa1999cU, 0x83939587929a998fU, 0x9f9d8d8e9c868c97U, 0x82879e998c8a8899U,
  0xa09b8f939d98939aU, 0x8b91a19095868698U, 0x959ba09b969ca091U, 0x90859995a08e918eU,
  0x969aa086ad93928eU, 0x888c8a8d978a978fU, 0x8c9a95978e879e94U, 0x839188a0929a9387U,
  0x9182a08ea69e9985U, 0x988b8c8c899d909eU, 0x9698979fa594939cU, 0x9699948c918c9c9cU,
  0x998a929c9c8b8896U, 0x97979e9c93939495U, 0x949b968b95899982U, 0x99969fa19397a290U,
  0x8e839d89a28c8f93U, 0x99988b8d8c87938cU, 0xa185979e8b95a18bU, 0x968d8b8f9696978eU,
  0xa2989a8f8f929198U, 0x8c888e9b8d8aa08fU, 0x998693989b88887fU, 0x9c91989597928a99U,
  0x8d999190aa949388U, 0x8a98988d9a899696U, 0x9296928e94a0978dU, 0x89889c91a29ba18fU,
  0x8886a291a69d9b8aU, 0x879a978d99879b88U, 0x9586a18f95919e8cU, 0x879a939d9e9e9789U,
  0x8a839b8c8c978e92U, 0x93999d8ba2879b96U, 0x8f9b8b9aa393987fU, 0x8a8c9091a189928dU,
  0x898d969d8c959a7aU, 0x82939e8d8c90a29fU, 0x999c8f9c96a09692U, 0x888e8a8c8d9a8e8dU,
  0x978d9c9ba38f978eU, 0x979f9798979e8b8dU, 0x92938c888b95a192U, 0x85939286a0949296U,
  0x939297949194868dU, 0x9387a08b9f859d8eU, 0x9c988e9697909a82U, 0x82978a988c88979fU,
  0x96819597838b8c90U, 0x96938da08f9f948bU, 0x9f869d8c98938893U, 0x8687999786929489U,
  0x8d978e969498998bU, 0x9b9b8a899a9a958cU, 0x87909b9c908c8685U, 0x848a98898c8b9999U,
  0x9484a19e8f948e81U, 0x87989691958a9096U, 0x888ca39e8c99969aU, 0x96938e918a9ca287U,
  0x8e94999690928d8aU, 0x9a859f88939d9c89U, 0x9f949197a287a099U, 0x81988c94898b898aU,
  0x988e9c999f97908fU, 0x8c8aa191939e9a9cU, 0x9298908a97949f98U, 0x898597948c9d9f95U,
  0x9c87958e8b8d8b8fU, 0x87859b9e9c8f999aU, 0x93869692949c9392U, 0x909b8c949c928c95U,
  0x86918d958f9e928dU, 0x9a8e998a9d9f8987U, 0x8d92a293958a9d98U, 0x879294999f8ea290U,
  0xa19b9792898e938aU, 0x8d95968d9c8e8f99U, 0x8c82929b8e888c9dU, 0x809f99959a879a93U,
  0x929b90877196868eU, 0x8e8b929fa5869187U, 0xa1939789899e9c8aU, 0x909d959996958f95U,
  0x929a9e9a6a888a9cU, 0x7b8c9892949a939aU, 0x8f97a29667908499U, 0x79858ba28c8b898cU,
  0x9e9d948887919a89U, 0x8c92999b9587a38cU, 0x969a949c748e9d98U, 0x8f9c8c9d98818e9eU,
  0x8799a29678988e9aU, 0x918593948e8a9a90U, 0x9b8f969f85939285U, 0x769fa1948d7c9b86U,
  0x9b9a969871888f8cU, 0x878692958d8c909dU, 0x9098908e7d8b939cU, 0x7a9c93898d85a489U,
  0x9e9598908f969d93U, 0x8c93958d96868e90U, 0x948b948a6f8f9b8dU, 0x7e9d8b869f8399a1U,
  0x948b99857f97908aU, 0x898897a0a0879b9bU, 0x8b899f97828c8d9cU, 0x8c989987a1998e8aU,
  0x918a979d809d9391U, 0x8d9c9497a88ba299U, 0x9a909e9d7f88958eU, 0x7a929a97a27f9b83U,
  0x9e8f9ea07a9e8f96U, 0x7ba08d989292a29cU, 0x9b859d9180859495U, 0x838f8e9ea18c9085U,
  0x978a9c89849c89a0U, 0x78879ca1a07e8c8cU, 0x938ea18f7b899491U, 0x8c94a19fa37da389U,
  0x8b8c8e888a929889U, 0x8c9e8e89a37fa496U, 0x98869b92759f989eU, 0x8091a19e9f84958dU,
  0x93879894779b909eU, 0x8f8d95939e858b8eU, 0x96968b9f86929296U, 0x788ea09f96789e83U,
  0x8d9d97918b94998aU, 0x7f8e8ea0a68b8ca0U, 0x919da18d77929a8cU, 0x85858992a68f9d87U,
  0x93938f988d899c9eU, 0x7b9a8786a28ba287U, 0x9c8a9c907c92849cU, 0x7c899a898e85908dU,
  0x968ca39c5d989086U, 0x83899891928f8c97U, 0x8c98908f7b999c9eU, 0x749295918d838c8eU,
  0x869a948c849d8b97U, 0x848e9287a296918aU, 0x9d879f9089938487U, 0x81969992987e9390U,
  0x8d8f9b91769e8a89U, 0x84889d8b888c978eU, 0x94989e8e8c9b8d88U, 0x7e8c9d91a68e8c9bU,
  0x8f9792897c98949eU, 0x818f8797a079a29aU, 0x9d8a97887c8e849cU, 0x8195938a96888a88U,
  0xa195979882908c9bU, 0x7e9f9f9d90929383U, 0x8f8c968989969599U, 0x8da086988c8d989cU,
  0x9588a48891948c8cU, 0x839f9e9e9b97a290U, 0xa08591857d99939fU, 0x77879a87a2809987U,
  0x9390a09490898888U, 0x799e9a91a08ba587U, 0x8d93908b888f8b8aU, 0x77939f909e91a492U,
  0x9485978983879b8eU, 0x7a958d9e90949e97U, 0x9c9f8a8c8da09392U, 0x7998949090979e84U,
  0x8b75938fec9ea8a8U, 0x88a5959c7aa35079U, 0x9ba88491b385a899U, 0x858c9c9f9cb19aa3U,
  0x85a5809daa8b8185U, 0x9a9694868ab5ab9dU, 0x979089a1a08b7f9cU, 0x96a0858786b0aba9U,
  0x9b9294a3aa9a7b91U, 0x9ea28998a4a59ca6U, 0x89a38591ae9c8ea8U, 0x9a9e858792a39da6U,
  0x888f8b91a4878b81U, 0xad948988989b9795U, 0x958d90a2b18688a5U, 0xa7999c9386a29890U,
  0x9d8f8294929c8f9bU, 0x8ca8869891a39290U, 0x9a91979f8f958597U, 0x98a78c8698969ba7U,
  0x979e92a2978795a4U, 0x94a29f949399a5a9U, 0x8fa894a0ae987f98U, 0x8aa299928ea09992U,
  0x92aa919eaa9d949eU, 0x9c94868a929b9ca1U, 0x999d83939a968594U, 0x888c9b8892a19f91U,
  0x8ba4819f9a9a8b9fU, 0x8493919299a397a2U, 0x87918b8fb38aa9a1U, 0xa9a08998948ea096U,
  0x9ca38295a386a49dU, 0xa5a39f8b9398a291U, 0x8ba796959c8894a2U, 0x9f9b868f97a28e9bU,
  0x8eac949a989b9890U, 0x8aa698919aa9a399U, 0x9e9f8e90968e9b85U, 0x85959c8f96969d9dU,
  0x88a389a29089908eU, 0x938f929a979398a1U, 0x8a9a8a94a9949d85U, 0xad938a8587a7a38fU,
  0x8f8f8c9ea88ca6a8U, 0x999f858692a5a493U, 0x938c96a19888a38bU, 0x96a48c99909c9393U,
  0x9f998e97919b959cU, 0x89a285869e9e998bU, 0x9490898ea19c988aU, 0x98989f858ea29c8fU,
  0x959d89a395859e88U, 0x8a9786868da5a290U, 0x9f9597929c87a296U, 0xa3a6858ba3939b91U,
  0x9c9888a19190a481U, 0x8c8f989688959a98U, 0x86908fa4a689a791U, 0xa490958a91929791U,
  0x8f928d95908ba0aeU, 0x9899999d91a089a3U, 0x91928f98b79eaea9U, 0xa58d8a888aa78a94U,
  0x9e9a8ca5b49d9b7dU, 0xa29f8788a3979090U, 0x89948995958b8e84U, 0x7e939e8a9d949a9bU,
  0x95ad8b9b94849399U, 0x93948a9793a2919aU, 0x9f9d8793a286a390U, 0xa79095908a96a28eU,
  0x909e8ba2ad83aa99U, 0xbca29199968f988bU, 0x9999939ea3839f92U, 0x92a1939aa2a48fa3U,
  0x8d9f9697ae839390U, 0xc0939c9399a48d99U, 0x9ea5978db090a696U, 0xbf9296859197978aU,
  0x98a48da1a585a3a2U, 0x979f9d88989e8c90U, 0x8d9a848f9296998eU, 0x9da594968ca98d91U,
  0x969a9890ab87a586U, 0x9e8c9b9f899f9e98U, 0x9f9d85a2a09c9698U, 0xa6939f8d8f9190a1U,
  0x90a39491959590a3U, 0xae98928e8c988b9eU, 0x9c8a949e7c84947fU, 0x7d8d9892979a9393U,
  0x887389906a988fbaU, 0x53a697899092a8a1U, 0x8d7c85a37b8f8eb8U, 0x7d98889792ac94a7U,
  0x936d9496888ea8b4U, 0x7ba78e919aaa9da3U, 0x94658d8e7a8f98a7U, 0x789e8899a591759dU,
  0x8571998e7c8393a5U, 0x75938d8da0a29397U, 0x8d64858c9b8794b6U, 0x8e908b989d99888bU,
  0x8764808c969e96b6U, 0x90a0928eae998495U, 0x8c799b948084929fU, 0x7e9b9d9b96a77e8aU,
  0x9970868d5e8992acU, 0x8ba19b89b5aa758bU, 0x846c98907c999fafU, 0x8d979398b3ada278U,
  0x9b669996919193b2U, 0x8a8e889bbb9b7e7eU, 0x9c6e8a918e94a7b4U, 0x809e8697a3985f72U,
  0x967183a38a8fa5a9U, 0x7f968b919dac9782U, 0x846e979e769092b5U, 0x7ca19589b59e6f70U,
  0x93718e908c9ba6a1U, 0x7a8d8d9ec1aa6270U, 0x976d838c6b94a1a6U, 0x87a6928faf965a7cU,
  0x8c7c8b968c8f94b0U, 0x8c978588a8936a76U, 0x88769b9d859c96b3U, 0x8f9a9f94aaaa8a7fU,
  0x8a68868d9a9d9fb4U, 0x83928894a4aa4465U, 0x866a8e8b988f94b4U, 0x95979a919f938e71U,
  0x9a6d8aa2659493b4U, 0x8da39395b6a55b79U, 0x9577908e9a9592abU, 0x84988c8b9aa46e73U,
  0x9d73888f8f8890b6U, 0x94a49390b89e497fU, 0x8f6e959b83979da5U, 0x8c9594919cac3e7bU,
  0x8f6c90977d8995b3U, 0x949fa09ba8a53e64U, 0x916994927f8fa2abU, 0x878e868f96955f7fU,
  0x91708a968b838fafU, 0x90a3859ea1a02d7eU, 0x96748f969d9195b1U, 0x888f8c9d96a32b7fU,
  0x8b638c94798a8fb5U, 0x80a09791a5ac285eU, 0x9e6b9a8a6e8fa6b8U, 0x8ca49f9aada8546fU,
  0x9863968aa3879eb5U, 0x858e869a97933f76U, 0x956498918c8ca4b7U, 0x908f8a9d9c923d7aU,
  0x986b819f8a8c98b5U, 0x7f8c9391899f8971U, 0x856585a0a38792aaU, 0x929a9989a9963e62U,
  0x957283a38792a3acU, 0x8b9aa09ca8a9326cU, 0x947c908d8e96a0a1U, 0x7e9da19190a4476cU,
  0x85678d92919a9cb4U, 0x8c96909090a56f7aU, 0x8b7b8c8d739b9aaeU, 0x919d968c82a15e68U,
  0x957798918a9892b8U, 0x7fa49c9b8c944f66U, 0x8d698a908e9b95a2U, 0x8b8d9684aba05460U,
  0x946f8d98739aa7b1U, 0x868f969c8996636dU, 0x87718a8f7e8d91a7U, 0x7b9d8c909b9f376fU,
  0x8a7a9797909ba3a1U, 0x869b909799a2265eU, 0x99698a8fa48fa1b1U, 0x759191879ba95d61U,
  0x9c72869cdb90b0a8U, 0x848c9c998a91437dU, 0x8ba2998ca887a09cU, 0x86a18f9589a397abU,
  0x999a979fb69d8e8fU, 0x9aa49d9991c7a3a0U, 0x9d9c91a0a29e87abU, 0x8599a19b8ea1989dU,
  0x8e9a9aa4b2878da4U, 0xab9f9e979da79e98U, 0x999a9497a190a4a2U, 0x879e9d9d9b93aa98U,
  0x9ca59994a49d877eU, 0x9d9d8e919a91a59aU, 0x9d9a899aa59e8f9bU, 0x979c95898d98a6a9U,
  0x9590838f9885918dU, 0x878d948b94a8aba6U, 0x9e92968e8c8498a8U, 0x91a0899a9198a29bU,
  0x86a4879ea38f8a93U, 0x9b8f85869894ab97U, 0x859d859cb28a8b95U, 0x98a491868e978f97U,
  0x8aac8197a6939c92U, 0x9b9a9292899aa0a3U, 0x9893958e96897c98U, 0x99929b9b96a6939cU,
  0x98a297a5a18a8a91U, 0x75a3868692a9a293U, 0x999884a3a48e99b5U, 0x9aa692938a9f9e91U,
  0x9a9f958b9e8ea396U, 0x9b97979f9f9f96a2U, 0x869a988b928aa292U, 0x9a9f949c8ea5938dU,
  0x95918c9a9a9d9596U, 0x789e90988da1969fU, 0x8e9b849d8f9b828dU, 0x84948c9d8f95948fU,
  0x92a18c8a8c97918cU, 0x8ea290939a8e8ba4U, 0x979c98a0b08f9791U, 0xad939b8b93a19894U,
  0x8c9c85a4a191a6a8U, 0x919594899f9b9c9fU, 0x929a8b8d998c9391U, 0xa29d8e8d8ba597a0U,
  0x959c90928b939b9fU, 0x91989e9489a2a392U, 0x8da59ba49e95959bU, 0xad8e8b9a9891958eU,
  0x998e94a19797a088U, 0x7d8d8599889995a3U, 0x8b958797978693acU, 0x9e939d9e9f95978dU,
  0x859b8a8f968aa790U, 0x8b939d859a929e9dU, 0x889f9192a898989aU, 0xad8f988e959e8ba3U,
  0x978f91948896a7b4U, 0x99998c959e93979dU, 0x85a486a0a98ba0a5U, 0x9a9a899b88949990U,
  0x93919096b59c9b94U, 0x8ea4978e9790a38cU, 0x9d9b8493a8909d94U, 0x92989c9e8b9e918fU,
  0x9c95899a92959693U, 0xa5949b8a9699998cU, 0x8b938ca1a39a8ea3U, 0xa9908f9a94969e9bU,
  0x9c8f8a8aa98fa4a3U, 0xad9c969d9aa29594U, 0x94888a919f8d9e8fU, 0x84a29c8c9ba99a9bU,
  0x9ca08797b48e9e9bU, 0xaea28892a19a8b91U, 0x939b979fad95919fU, 0xaf92919d879d8f93U,
  0x9b99878fa99d96a4U, 0xa38d9a9998928e99U, 0x8c979194a3879986U, 0x8e9296848ca79894U,
  0x889787a1a08aaf86U, 0x9c98899192969c8eU, 0x9e9b9397b3989b98U, 0xa4998e9d959e9897U,
  0x9996978d8d92959fU, 0xc0938c8591a58d88U, 0x937e9ba39488a28cU, 0x89988e948e999d9cU,
  0x9a5c978a82949ca0U, 0x558c929d8d9b948eU, 0x9767989f7f8e92aaU, 0x79a28d8d9ea39186U,
  0x8a6e979c769a9ba7U, 0x85918b8d9d949697U, 0x9b7599a26790a99eU, 0x878c878a9d90778dU,
  0x9670848c77989ea6U, 0x7c8c8a88a4a4907dU, 0x9d6294a39d8b95a4U, 0x819b8586a2a58c79U,
  0x937783a08a97a694U, 0x89a08a94b3937777U, 0x9b748c9c7f8aa8a1U, 0x8e8d988da4a38084U,
  0x957d91a26d989397U, 0x87a6859ba69c7d88U, 0x897b91a1758c979aU, 0x859d8f92b4a99173U,
  0x886e8aa297848eacU, 0x83a1989daa947b7cU, 0x9c76839f91858d9fU, 0x8c9c86989ca56973U,
  0x9575919878948f96U, 0x8da59b969c95a081U, 0x91668993749a8f98U, 0x8e958c84bc9c706aU,
  0x86778b8a8c9095a3U, 0x8c9f9989bda05c76U, 0x877b9a9078859098U, 0x81a09b92aeab6073U,
  0x8675929da697919fU, 0x7fa69b8da1956f67U, 0x897c8596888f969dU, 0x8b968b8ba1a37461U,
  0x887985a59b9c95a9U, 0x938d8590a4993661U, 0x8c779295848f99afU, 0x86a59695b2a97667U,
  0x8d758791718691a9U, 0x8d8f8597aa9d5173U, 0x946b838c8e99a599U, 0x89a29f93a8a37673U,
  0x8f73908d8b97a7b0U, 0x89a08a91b79d4d73U, 0x9877889b788f9a9cU, 0x8c939790a099526fU,
  0x907981a38c93a896U, 0x7ea48699a1a84b5eU, 0x937d88a37e8a9298U, 0x8596878da49a616eU,
  0x916986a18185a69eU, 0x80909297ada2397fU, 0x9069898e9b9c9699U, 0x86a5929a99a11e76U,
  0x887c99937f92a3abU, 0x77a68d9fad951058U, 0x9c688b9f6f93a09bU, 0x8ca1948cad925571U,
  0x857a999892879ba6U, 0x88a08c9393992e76U, 0x8a659a8c9197959dU, 0x8a8f859aaea02c6bU,
  0x977d89a2859b9b9aU, 0x8299a19992a48160U, 0x997b998f8f9592a2U, 0x8e948e87a9a23f6aU,
  0x8a68858f82879799U, 0x84a19798b9992460U, 0x896594959c91a5afU, 0x78a59e8596ab476cU,
  0x866982a08789a8a5U, 0x7ba0878990a85d67U, 0x9d6f8e927c9b95afU, 0x8b9d878794a05a68U,
  0x9d72929e9498a59aU, 0x8a988a848d9d4c61U, 0x907286917d8d9daaU, 0x87969399aea55467U,
  0x9078958b7b8995aaU, 0x8e9e8b998faa5d60U, 0x94659a948987a5a2U, 0x8aa3a0988d932f61U,
  0x986b8494a0889a9fU, 0x88a08e8f89971a69U, 0x916993a2a08a9996U, 0x87929d989caa5a5eU,
  0x997a8e93da9dad98U, 0x89a7888f85985a79U, 0x99ab97a0aa90a2a2U, 0x6f8d87918bb5b3a5U,
  0x9fa4878f9f8f96a1U, 0x869f8a889fb8ab9aU, 0x8ba3928fa89f7e91U, 0x8e8c989e8fab9db0U,
  0x88a18396a88d85a6U, 0xa397899b9d969aa0U, 0x8ba18890ab98969dU, 0x929b8b94979da8a6U,
  0x98979aa5958f9481U, 0xa293939597a99aa6U, 0x94a28899b29181abU, 0x96909687a092959dU,
  0x89948b93a986948bU, 0x7b99938d9799a6a1U, 0x96a090a59e9c97a5U, 0x97a48b8b9b9d9e9eU,
  0x8796958e9a8891a4U, 0x95a39a998ba8a3a1U, 0x8a98939ea89c8c8cU, 0x97a7998f8c9ba495U,
  0x8fa492a0a88da19bU, 0x9c96948da0969a93U, 0xa0a49d8e9c94838eU, 0x98a2878e92a2a29dU,
  0x9b9c86969e85879fU, 0x7ba299899192a893U, 0x8e93919ab694a6a5U, 0x9ba59c9c999aa49cU,
  0xa08c8da0aa978997U, 0x9f96909c9d928f8eU, 0x998f91a59e91a190U, 0x8b93899d93a3a19cU,
  0x8c9d91999890949bU, 0x7da58b9a8893a58fU, 0x94a785a1948b908fU, 0x8ca7989591949f97U,
  0x919a97938e88a190U, 0x9492959e8fa09a94U, 0x8a9c8397a595999aU, 0xb4999a868c95a797U,
  0x93979690a98ea2aaU, 0x95998c89979ca394U, 0x898884919c94a48cU, 0xa39a9d9797939591U,
  0x99a682918d9b909aU, 0x90a29f9a8a919b8dU, 0x938d9ca38d98a58fU, 0xa28e9b9b96a88f9eU,
  0x9f9b87a091979e91U, 0x8593948c8a978b9bU, 0x938b8b9f9c939ca2U, 0xa0a29795959d899dU,
  0x889a86a2978b9187U, 0x87918c88989e97a0U, 0xa19c9897a69f9f9aU, 0xb0a396a0a1a48e9dU,
  0x8894989c828a9da8U, 0x97938c9b8da89ea1U, 0x9c95839eaf9da3a2U, 0x90a39b9c8b938f9bU,
  0x86a2979ba99ca98cU, 0x9c959c88a0948c99U, 0x9d95939397948d94U, 0x8aa5909b96949b93U,
  0x93a395a09e8ba599U, 0x9e9b8d8f948f9692U, 0x939898a5ab91a294U, 0xa88c8c9e8f919aa1U,
  0x9095868bb39b989dU, 0xb39b9d9a8b988896U, 0x8e9092939c8ca39bU, 0x85959896929c8d99U,
  0x8b919198ad9691a0U, 0xaba487898da5929cU, 0x9a9f849a9f9ea097U, 0xbc908890a0908e8eU,
  0x969382949d98a3b3U, 0x959f928aa3928d89U, 0x8c908a9096919d9aU, 0x998e8d93939b8b98U,
  0x929a9799a88c998bU, 0xa09c90a08e9f91a5U, 0x97948f9ca49da09bU, 0x9d8e8f90969d9f90U,
  0x8d9f9c9e9a9b8e9eU, 0xb39d91898d96a08dU, 0x9b998fa57d8da288U, 0x89a08c9a968f9ca3U,
  0x9d71919576858fa5U, 0x69a5928a9a9a8d9bU, 0x896d99a28b9a8d93U, 0x5d9d9b8b96a99684U,
  0x99748a99848ba498U, 0x83a5909e8c9c8495U, 0x9e6b848c698592a0U, 0x8392989ea7a28585U,
  0x9776998d73928fa3U, 0x789c948f9e9e9c87U, 0x956789a48f99a0a1U, 0x7793919494947986U,
  0x92759e9d878895a1U, 0x8590998d9ba18774U, 0x9f7d988d728a8b95U, 0x8ca68f88a19e8a7fU,
  0x877e869c5f9d9599U, 0x84918f8e9e8f7c6dU, 0x906e8a917687a4a6U, 0x84a28c8ea9989470U,
  0x878083a29d969ea7U, 0x76949e8fae9a8067U, 0x977a988d988f8f95U, 0x918d969ca5955e7aU,
  0x966987a18684a294U, 0x8b978c889ca19378U, 0x897287a06393a0a9U, 0x909f9e9cb797786cU,
  0x9b6f909d7996a590U, 0x7da39090ae965b7cU, 0x976d8b967b9d95a6U, 0x8aa58e9db19c5b7dU,
  0xa069969d968ca291U, 0x9197a08ea3a96674U, 0x866c97a38b9d9096U, 0x9090959099917669U,
  0x91779b99948d9c94U, 0x819b8892999c3e61U, 0x9f708aa387919e91U, 0x8191a289968f7273U,
  0x95698c9b719899a5U, 0x769a9c9eaca45672U, 0x896a9d8b9899a0a5U, 0x7f8d98948f9a7269U,
  0x976b878c7b97a794U, 0x899a9989ae914975U, 0x857f8c8c82889299U, 0x72998a96a5a26170U,
  0x8d6f94918f9b9996U, 0x83999e96a59e5172U, 0x987d958b80999a8fU, 0x88968d9e97924c7eU,
  0x937b8c8b88959ea6U, 0x868e9891a79c3c6eU, 0x9b809794a08d8ea5U, 0x80a29988a89f3084U,
  0x907b94917f88999bU, 0x8b9a9898b39f3070U, 0x917b958e889b9c9eU, 0x7b9a8d959c996b64U,
  0x9d759995928ba199U, 0x828c8d888d99437fU, 0x8677999c97949ba6U, 0x8a8e939298993b79U,
  0x9a6f90a597869098U, 0x7b8fa09b8ca87e5aU, 0x8d76899a9a87939fU, 0x80a48997ac8f475bU,
  0x8978988e998e989eU, 0x878d9e9ea496466dU, 0x897b9b918b9a9392U, 0x89978c8990a85764U,
  0x8e7d9b8f899c9791U, 0x86a2969b85a06b66U, 0x926c909a818a9994U, 0x7fa6999c8a9e4c6aU,
  0x9c8095969798a29bU, 0x78a58f918d955061U, 0x88779b96739b9aa5U, 0x7ca0869a9ba65760U,
  0x99769c9f7a919ca4U, 0x818d9a908295545eU, 0x917e83a27b91a399U, 0x8a9d969d8b993d68U,
  0x967283a4998895a0U, 0x90a3a28a8b9e1f5eU, 0x987f88a3a89da3a4U, 0x8a938a96999f6069U,
  0x8e888c89878c9687U, 0x93999b8989a2988cU, 0x9f9f998b86a08b9eU, 0x918c9e90999a8d96U,
  0x9291998ba0899d97U, 0xa193929b87969493U, 0xa190968d94a08b9eU, 0x8797a0889e9f8b8aU,
  0x99a19493878c918dU, 0x8a9494988f899f8bU, 0x958d948b9d878f92U, 0x8ea19c91918c8f9dU,
  0xa0909ba1898e8f89U, 0x8c8d88889e96a09fU, 0x92939d999a8f919cU, 0x88989a918a91879dU,
  0x8a9c9c8f8d91a097U, 0x8aa08d9e9096948eU, 0xa18a9c90908b9c9cU, 0x919f878a98879692U,
  0x98a295899ba19996U, 0xa09499928d87a18fU, 0x868d90a0a1a09a96U, 0x9f9fa1898f8d9886U,
  0x958aa09f979a9d94U, 0x8e95a093a188949fU, 0x8c9e8f8a99898e8cU, 0x908a9899898d8d98U,
  0x95908c8f8f9c9688U, 0x968e95a1898f968dU, 0x988f9d9c919e8a97U, 0x8b91a08a999389a1U,
  0x9a9b9c938b8f999fU, 0x9a979d8d92978e9bU, 0x938f99908e9a9891U, 0x8a9b9d9798979591U,
  0x8892a19599a19889U, 0x928b8a978e8f968fU, 0x9fa09093899490a1U, 0x86a08a928c9c8a8eU,
  0x8b87899f8f9e8d8fU, 0x8999888d8e8e989eU, 0x9193869d9a869096U, 0x9a898c878787959eU,
  0x9a9d9999968d908cU, 0x9f8c9b9d9689878bU, 0x9a9b9e93988f8c87U, 0x91868c97979897a0U,
  0x898e909f8892969dU, 0x8f8f8e9b959d9695U, 0x9493928da19b9b88U, 0x939895959793978aU,
  0x9d9389939a968c94U, 0xa08896889493909eU, 0xa29e9b9e8a888e89U, 0x8d9c9f9ea08c888dU,
  0x8b88978c928e9892U, 0x8b889c8b929c8a90U, 0x9a8a87938b918d93U, 0x9b9092938b899d97U,
  0xa08b968d8a919b98U, 0x9b8e9ca19b8c9786U, 0x9893899288988c8fU, 0x9e949b9ba19d8f97U,
  0x9a8b9a958d96959eU, 0xa0969a9fa194a08fU, 0x889c9d8f9d999ea1U, 0x8993878e9aa19f88U,
  0x9c9fa1989f989e8eU, 0x929e97919a8f9f90U, 0x989a9b909b9f969eU, 0xa2939e9f8a8d8897U,
  0x9e89878d88998da2U, 0xa196a296969c94a0U, 0x99a2919f91979598U, 0x949a87988d9c9b95U,
  0x9199969a90878d8aU, 0x87999a8c89878c94U, 0x90898e9c87929699U, 0x92869f9497878e90U,
  0x8e8a88968f98a1a2U, 0x9293978797988a9eU, 0x97a08b94918a9194U, 0x978e879989a19c9bU,
  0x8fa0a18c99919b97U, 0x8f999d9d9fa0909dU, 0x9a8b9390949f998aU, 0x9196928f8a8c878bU,
  0x9f88889d94a08c9fU, 0x929aa09689959b94U, 0x96949c9593978e95U, 0x8e93939089959d9dU,
  0x8ca091988c918d99U, 0x988a909289899e99U, 0x898b99989e929b92U, 0x96898f9f9d93998eU,
  0x8a9b8b898a959f86U, 0x928c97899b8c969cU, 0x889ea086898d8b90U, 0x919e9e9ca28d9c99U,
  0x959f949d9c9b9688U, 0x918797948d938f99U, 0x90939a8c959d8c92U, 0x99899b93a197969dU,
  0x97929b8887a19690U, 0x97a19d86a0979598U, 0x9696a087889a939cU, 0x9b959d9696948e8bU,
  0x989d97938793918aU, 0x8d90a19f8f98a19dU, 0x9da28e978d949ea2U, 0x9f9f99948b8e8890U,
  0x9c869c8792908c9fU, 0x919c8c898d938995U, 0xa0a18f8f99898d9dU, 0x9a88959b9b96889cU,
  0x878d979aa18d958bU, 0x8d9b8ca0a1939788U, 0x9f898f8a87868e96U, 0x92959c908793a194U,
  0x86969293999b95a0U, 0x988b8f9f908d9f8dU, 0x9c908c87908e8797U, 0x928f8e9f9296979fU,
  0x87949a8895a19d93U, 0x868e91869b9d88a1U, 0x939b8e9d928b8d8eU, 0xa09891988f9e8d86U,
  0x9e8c8d8e8c9c8b8cU, 0x97958f878b98909dU, 0x9e949a8896a1a197U, 0x998e9e9c968aa190U,
  0x969191898f9397a2U, 0x999f9f898e8b8e95U, 0xa19b8ea09593899dU, 0x8ba19c89948ca197U,
  0x8a8f948a998a9d8aU, 0x8d9a9f9a9699998cU, 0x9f9d958e87a08a8cU, 0x90a08d9c8d9a8a9dU,
  0x978da29b9b8a9094U, 0x8e988aa08fa18d9cU, 0x95959095a191878bU, 0x96989991909f8aa1U,
  0x8f899c9897928f99U, 0x919c8d918fa18c8bU, 0x868c8b9b8f998e90U, 0x879b868f978f9694U,
  0x9c9e8f8f8b968f86U, 0x999e978d888d9999U, 0xa0a28e8a978e8998U, 0x8c9a92909092949eU,
  0x91959d9b8da0888cU, 0x9199a1928b9d909aU, 0x8f9a9d9198929099U, 0x9e9c9c899e88988fU,
  0x959c9897919f8889U, 0x8a9096898c9a968cU, 0x9b98868f8b97a0a2U, 0x97909f9188938ca0U,
  0x948c92879097a18aU, 0x888e9d9087889a94U, 0x958a8f979d869595U, 0x9f9c9b988aa29689U,
  0x9a8a9f9388899f8fU, 0x90a09e929493989cU, 0x8c8a938e89968ea1U, 0x8b909c948e96888cU,
  0x98959b909b929b8dU, 0x978f879f8b9b8ca2U, 0x8d8e9897889d928aU, 0x92948b8aa08a8e8cU,
  0x87929f8d9f9394a1U, 0x93a19d8a959d9289U, 0x978e889f9d988893U, 0x899b8f9389979e9eU,
  0x8f909691939a9294U, 0x9f8c989b978d9d98U, 0x9e9c908ba28fa095U, 0x93a294a08a919e8fU,
  0x92939f86a28b9193U, 0x9d9c9d8d9088879bU, 0x969c8a8a9c979b8bU, 0x989f959f8b8d9f94U,
  0xa28e89889ea18796U, 0x92889f8b889d9696U, 0x969e9b8ca09c9294U, 0x8e9da29f9d8e9486U,
  0x9f90998c8789989aU, 0x8e98a29b8c958b9fU, 0x90a08a998f889d93U, 0x9f88909a958d8ba1U,
  0x999491a18e9ba192U, 0x8f978fa19b88a18dU, 0x889489998c9d968fU, 0x98908f8ba1988b90U,
  0x8d9e9aa19c96908eU, 0x948f90929f898788U, 0x97a19d919c8c8b8dU, 0x918e939e8c919f88U,
  0x8a9f9488909b8da2U, 0x9698899d8892a08aU, 0x94a293938e8a9d97U, 0x8d93978c999c9e9fU,
  0x8e8fa09d89898d9aU, 0x9c9b9e958d8b8e92U, 0x968c96869c9b998fU, 0x9c929a8e8c96978fU,
  0x99a19792999b8a9cU, 0x909fa08e959b8793U, 0x978a9790a2949399U, 0x8a86988b8f8f9487U,
  0x8c8f9e908a9d9499U, 0x9998989b8e949199U, 0x94928aa188888c8fU, 0x9a9293898a8d9594U,
  0x8ea0a09f90898f9eU, 0x8e9d95a0969a9089U, 0x988d8d92a188909eU, 0xa0989c9f9a928d8cU,
  0x9b8e90869c8b8e97U, 0x8f9f96928e94899bU, 0x9394a097a0919797U, 0x9e919e9b88969f99U,
  0x9f8d8c8ba0928ea0U, 0x8f92889d988ea296U, 0x8887988d9791978dU, 0x8f949692a09b8793U,
  0x8a8c95a2958a929fU, 0x8989929a9696978aU, 0x9797909988909f9cU, 0x92939a8a8d919b92U,
  0x8c8aa28e939b969fU, 0x8c8797989c9f879aU, 0x9e948e8b968f949aU, 0x8c898aa28c979e90U,
  0x9a968f9d9387a195U, 0x988695928e9d9090U, 0x92a293949b99879eU, 0xa19a90998c9b978bU,
  0x9591a19699869596U, 0x93959ea08b8f9090U, 0x95988988a28d9591U, 0x9d8b9da18c9e9c88U,
  0x9d969c9c9a9e8ca0U, 0x91a1a09a8b9d9093U, 0x918c8d97968fa18fU, 0x87a0a09d989f998dU,
  0x888a8d9b909a9095U, 0x9b8f9289989c9993U, 0x9f8e8d98898b9194U, 0x9c89979f89918e94U,
  0x918f8d8b929d9d8eU, 0x93a09e86958f959dU, 0x8f9e949a9690a093U, 0x8ca1999998969a95U,
  0x97998d9888968b8dU, 0x8b8a95939b949f9bU, 0x9898939392899a89U, 0x9f9aa299988e9989U,
  0x8ca18c918a9f958bU, 0x89a19c8d928d8e92U, 0x8a92a19d8b87998cU, 0x99969c9a9c8b9488U,
  0x92a297909792969fU, 0x8e998e98949f9699U, 0x9d8f9f94968f918fU, 0x8f8ba18d979a8896U,
  0xa1889f9299a28ba0U, 0x8d8d8e9699998b91U, 0x908f8b989c999f8cU, 0x9e8a89899d908b97U,
  0x878c9498979f979bU, 0x8d9e9c938a889593U, 0x969f958889898a9fU, 0x869b968d978c8ea0U,
  0x988e899c9d9b9c8cU, 0x989b8d978c948f92U, 0x8a9c958a9e8a9591U, 0x8a9596978fa0948fU,
  0xa199a0958f9d9591U, 0x87a088939fa0888cU, 0x99948e8a9a959a9bU, 0x9d9c9b8a9d9e989aU,
  0x8c9b8c8a8c8f989bU, 0x8b9c91889e9c8a89U, 0x9f9389a29fa09f86U, 0x9696979b919e9992U,
  0x9b9a958e899d9ba2U, 0x95938c9da290a09eU, 0x898a87a18a8f989eU, 0xa2989198a18d8d97U,
  0x9e8e98959f8b9c95U, 0x8d9990919288919fU, 0x94998a8b8b878f9bU, 0x9b8f99a1918b9b86U,
  0x8f8a8f8d89a19892U, 0x9888a1a0a0949997U, 0x95928fa18b959a87U, 0xa294949293919d8aU,
  0xa09391a19d9b899dU, 0x968b988e90a19d8bU, 0x8f94909a96989b91U, 0x998f92879e978891U,
  0x878c9e889686968fU, 0x9c979d909189a093U, 0x928b99979394998dU, 0x949a95919c9d9a8bU,
  0x8c9e90a18c9c8ea0U, 0x89a0a19d8b92919dU, 0x8c879d9f968a9198U, 0x998d8f9ba0869a8fU,
  0x9e89869f9c989791U, 0xa09c8b8c89a1939aU, 0x959c989d9d8c8889U, 0x9a8b9990a1978e9cU,
  0x8f998e9d8f969a9aU, 0x9b8b998d9a969b8bU, 0x948e9c8d9a9e9e87U, 0x958e9b8b939a8f98U,
  0x97a08ba1939d9c96U, 0x9089a28788989f92U, 0xa09c9f9a91979386U, 0x909e8b8b909e889bU,
  0x9d878c8a9c8d8e94U, 0x8994a289899e988dU, 0x899ea18c928e9a95U, 0x8b89898e8a9d929fU,
  0x9f9f9895a2a19ea0U, 0x8f9c939a879e9594U, 0x8b8b8e98978e8987U, 0xa08e888c8886968cU,
  0x8e968a9796908a9aU, 0x9d938c8a99949192U, 0x9f8d96a09b90909eU, 0x8a918f93949f9f89U,
  0x9d8e8a98888d9994U, 0x9e9b93a1928e8f90U, 0x898d8f9b8ba192a0U, 0x9b9a95918d8f8a94U,
  0x9c919a888c96878dU, 0x9b8f8a9389868f93U, 0x88928b979e998f9cU, 0x9b9a8e8c988a9899U,
  0x888e889396988d95U, 0x8a8799919e9a8a9cU, 0x888b889e90999e86U, 0x8c9c979090938a90U,
  0x9fa08788a08990a1U, 0xa094918e9e9b9d98U, 0x998f949989969d96U, 0x879e8987989b9393U,
  0x929c878a97a198a1U, 0x8c8c9c8e9d889d90U, 0x999398a19f969f88U, 0x9996969f87a09e8fU,
  0x959e9c8c87908e95U, 0x9c948a9a9b94979fU, 0x9891909d958b9c96U, 0x8d8e8d9a8c948fa0U,
  0x916b8a93e69ca39eU, 0x84a6a38a93994b7cU, 0x9e928e8eaa98a694U, 0x6d9889a08eafb0acU,
  0xa19e9f99af8a8e8bU, 0x97a089a1a0c6a9b1U, 0x8e918793a69781aeU, 0x9c8d8a999e9ca89bU,
  0x97a69fa6ad9d7fa7U, 0xaf909f8791969aa5U, 0x96898ba1969ea59aU, 0x9a988f8790abaa94U,
  0x959a8d96999b9589U, 0x9a8e8a8c88a6a7a1U, 0x9d969a90ae879aa4U, 0x989e8893898eaaa3U,
  0x879988a1949d97a4U, 0x7f8e9e9c8d999d98U, 0x959b84918d9f9aa9U, 0x8794879e9894a297U,
  0x908d928b9b9e96a7U, 0x9da39a889d9ca893U, 0xa299909a9c998d98U, 0x978e8c8a90949f8fU,
  0x969f959690969a9eU, 0x9498998990969e8fU, 0x9d9796989d9e9597U, 0x939296938a9d8fa3U,
  0x9b9e989aa49891a4U, 0x7e919c8a9e969690U, 0x909c92a4ab939dadU, 0xa99ca1889a9aa498U,
  0x9396958fab87a28aU, 0x9ca298988c939792U, 0x9ca2948ba99d9493U, 0x89969690a29d969cU,
  0xa190909c8e868a93U, 0x789495989092939aU, 0xa0a7949098878b90U, 0x939a8e94999b939aU,
  0x9ea58d948a949c90U, 0x8d9e959291a3989fU, 0x929d959bac9b8b9dU, 0xa8978d959596a18fU,
  0x8aa2878f97a0a0b1U, 0xa3998e9e939e95a4U, 0x8f8c8e92a3a08d88U, 0xa08d91a0978e9c99U,
  0x9aa19da488948babU, 0x9897929d8aa2959aU, 0x92a6949ea38aa39bU, 0xa1969b9890a3939cU,
  0x929193969d999ca4U, 0x819599a08e958d93U, 0x9c99849ea494a4aeU, 0xae999d9aa2a1a494U,
  0x989b8a978f85a58dU, 0x949b8f8890a5a194U, 0x9da098959d8999a0U, 0xb2998e9b929493a4U,
  0x8ea38ba18f9795adU, 0x929ba1999590a398U, 0x9fa988a4ad8ca7afU, 0x94a58e8a96a09fa4U,
  0x94958a9ca889a89aU, 0x949f9997a398999eU, 0x959d9698a7919e92U, 0x928d9e899999909aU,
  0x8aa08d93a4869f9aU, 0xa8948e8fa49e9194U, 0x969e8790b2888b92U, 0xaa9d8a8696a8a196U,
  0x9e9887a1b0879897U, 0xad93979b8d92a1a0U, 0x87898fa094959e97U, 0x89969787919fa0a4U,
  0xa097909bb68d99a2U, 0xbb94a38b8d9b9e9dU, 0x9dac8994a4909fa8U, 0xb694999c9293988fU,
  0xa2a9869fb1a09fb0U, 0x93968fa08e938e9cU, 0x929b99988e94989cU, 0x88a39a9ea0a99998U,
  0xa1998d90b18e9d9cU, 0x93979a87a2a28a8fU, 0x98a19694b28f97a9U, 0xa6a6898d95a08a91U,
  0x9b928d928e908fa4U, 0xb69697a190979395U, 0x8e9a969b9792ab95U, 0x85a6a18e9ba0a09aU,
  0x9a6387957696a0a1U, 0x6ba08c9998a19f90U, 0x8f789b8f73979996U, 0x66978ea08ba48490U,
  0x9a698c917e9a9693U, 0x7b8f8994a1a18584U, 0x8966928f7e8caa9cU, 0x8b908d97a9957e7dU,
  0xa0728f8d7fa0a48eU, 0x8694a3969ba88d8aU, 0x887f8aa4a69aa39fU, 0x80a28a8daa989172U,
  0x907795a58797a399U, 0x80a39697a7a48586U, 0x967487926d8e8e9cU, 0x8ea58e9fa2987878U,
  0x9872889b5f86909dU, 0x8691968fb5a9877eU, 0x9e6d8f8e849c9890U, 0x7c8c9e999da77777U,
  0x9f778790979294a4U, 0x80999d91b2a88471U, 0x8f6b989e829e93a3U, 0x909b8d9b9c927174U,
  0xa2828c8c819b958dU, 0x90949997aea29270U, 0x94709d8e6c98a19bU, 0x8aa28a9aa2a3676cU,
  0x9469958d8192a29dU, 0x7da0888cb690597aU, 0x8b7089a6778c9694U, 0x8c96908eaa9e606eU,
  0x976e85a09599948cU, 0x8e91a28bae96686fU, 0x91798c8c80959393U, 0x9290a19da1906668U,
  0x8b7a8b9f98869b98U, 0x78978b8b8b964c61U, 0x9e7585908d9d9e9eU, 0x8fa09ba1aca28069U,
  0x886a969c70928c99U, 0x8aa0929aaca55e68U, 0x966990919a899c8fU, 0x89a5a09d96a37764U,
  0x9e829499789aa49fU, 0x80979196aa924964U, 0x97739f988a9a8ca3U, 0x83a5919fac9b6178U,
  0x8a7292957b96a79eU, 0x89999192999f5666U, 0x9b769790808d9e8bU, 0x849a9898999f526cU,
  0x9c6b9b96748ea490U, 0x789c989492a2436dU, 0x9e7184989089919eU, 0x80938d8f92933d8dU,
  0x95709aa48d969794U, 0x888fa199a29e3069U, 0x9282859787a09096U, 0x819a8891a3a77074U,
  0x9e7a928d99939395U, 0x79a7a39c8c933980U, 0x9d6c8a8f9b9490a2U, 0x91a69b8da4a9377cU,
  0x897688a47f8e9396U, 0x7d9e9d9e99928c64U, 0x8c6b88948c8da59aU, 0x7b928c92a19d385aU,
  0x9069888ea2869990U, 0x8c938c86ab9f4071U, 0x8a82999d988ea28aU, 0x7aa193979190566bU,
  0x8981999c8f8f9da3U, 0x8d9094a294a06365U, 0x8f6b8f8b7192a28dU, 0x77979a9485a7505cU,
  0x9d7d859e89a0a7a1U, 0x899e9c918da33e5cU, 0x8f78958f8885968fU, 0x78a2948e92a35d68U,
  0x8c819e9d778c9d92U, 0x7ca58c9a8ea85970U, 0x95708aa48e949996U, 0x8ba489969aab3e75U,
  0x8e6996a4a5869aa1U, 0x8a9d888886a8385eU, 0x9a7a92a39c978d8dU, 0x818d9d958a994d53U,
  0x8e559b8aff99b7a2U, 0x8aa09b8d769e357cU, 0x94948d8dad8d919aU, 0x7ba38e9798bc9da7U,
  0x99999aa4a5898392U, 0x919a8b979ebaad9fU, 0x8c9199949b8f8aa5U, 0x9a9e889288b19d96U,
  0x8b978f9b9e8e81a5U, 0x9a9e999c929fa9a1U, 0x9e95808ba29aa2a6U, 0x9894988b9d93ac98U,
  0x88a68d93a9857b8fU, 0xac9a9f888da59f9fU, 0x84909593aa93829bU, 0xa09f8d989d8c929cU,
  0x8998888dab918495U, 0x7d9f8b8596a1949eU, 0x92a786909b8f95b2U, 0x8f988d9d91979e98U,
  0x919f8e8caf8a94a0U, 0xa19889908da8ada5U, 0x9a958999b3898683U, 0x88938a8484a79396U,
  0x85ae8d919c87a69eU, 0x9e9d8f9388ae9da0U, 0x8a938f90a1897c8fU, 0x96978587989b968cU,
  0x8dab928ea0988d9cU, 0x6b95989d969f8e9cU, 0x8c9c8d8da68baaa2U, 0xa38f8d918e9c8ea7U,
  0x999d84a4a49c9896U, 0x9490a097909a9593U, 0x9a8d7fa0968ea4a3U, 0x8aa385978e988d99U,
  0x8fab939b8c9d8ca3U, 0x86a0939483a898a2U, 0x8e938c899197877cU, 0x929e88888ea59a9aU,
  0x9c90989b998e8e83U, 0x9e999f8f839b9c8fU, 0x84a58097ac8d959aU, 0xb49288889097918eU,
  0x989b8c8ea2859ab0U, 0x9a908d928a908d89U, 0x8e8e87969d898d7bU, 0x91a68a9890a7a189U,
  0x9b99848ea29193acU, 0x98a0929399969c97U, 0x8c9a8b948d8a9293U, 0xa7a493938f99918dU,
  0x9a9589a2a790978fU, 0x8aa79b919bab8da0U, 0x9b9c88a3ad839da1U, 0xb39d9887a38f939eU,
  0x93a08d8da28aad88U, 0x88a5999590a98e90U, 0x90919394ac839c9dU, 0xaf9487939b948e8dU,
  0x8ba28f9b8098a6a9U, 0x9aa4918b949e9093U, 0x8897929caf84a898U, 0x8f9b938e9ba69e96U,
  0x8b908ca4a885a991U, 0x959e87908a998892U, 0x859e9792a684919fU, 0x8e9e9a918a949d8dU,
  0x91a185979086a4a1U, 0x999d94959891a499U, 0x95aa978ca68a97a2U, 0xafa7879ca0a59195U,
  0x928f9195ac9c969dU, 0xb69d928c8a8e9994U, 0x9e9592959a85b185U, 0x82a58f959c988e9dU,
  0x86a29798c3989ea3U, 0xcba4928490a68c99U, 0x8aa59694b789959cU, 0xaa92979d87a08fa1U,
  0x8ca8839eb68e95b0U, 0xa59d9892969c9ca1U, 0x92a381969f979896U, 0x979498968c998995U,
  0x83a48c9daf8aaf92U, 0x9e9b888b93a09495U, 0x9d988a91ab8c998dU, 0xb4a4888d95999188U,
  0x849d91998e999e91U, 0xb2a68892869792a1U, 0x8d9393a47b889882U, 0x899a9a8496a68aa6U,
  0x8660838f73919eb9U, 0x4aa585859f96a99eU, 0x8f4b989a678ba2b4U, 0x729b858f99958ca2U,
  0x884b9294668696beU, 0x848d8e8ca39a9192U, 0x9947989b6894a3a8U, 0x77998e95b18d8285U,
  0x8c5393997c8691abU, 0x6e928884a29da48bU, 0x9e4c8b939098a4a3U, 0x8aa59496b5948774U,
  0x9a4c989b8e959c9fU, 0x789d8b86b0a57b77U, 0x8963899d749c9babU, 0x7e929a8898a27e82U,
  0x976486955b86a79dU, 0x75978695ae987b6bU, 0x8764898c758599a9U, 0x76918791b49c8f76U,
  0x9c4d839d7e98a4a2U, 0x878e888ca7a8846eU, 0x9a6592998a928a9fU, 0x7896998cae9e555dU,
  0x83538fa1729592a7U, 0x889293879f999e74U, 0x8a548f935a9297a2U, 0x8ba19789c2a25174U,
  0x8866819a848b9eb2U, 0x7f949598c7953d74U, 0x87628a9f558ea4aeU, 0x83959986cba0556bU,
  0x8d659594939797a5U, 0x8e938796b2a66062U, 0x9d648d8f808fa29bU, 0x84a7958abc996d65U,
  0x93628d919694919dU, 0x8ba0928c97941d5fU, 0x9451999e88848ea3U, 0x7b8c908c9e99695aU,
  0x8d5c8f9c66948bb0U, 0x85968f98b1a54563U, 0x8e4e83a3978da0a4U, 0x859e879aab9f625eU,
  0x9962949d7d8ca5a2U, 0x8294858faf942f72U, 0x8957948f6f8c8cb2U, 0x83929592ba984066U,
  0x90638e99819892adU, 0x78a39e84a995345fU, 0x8d607f8d869196a3U, 0x8197919c939f445eU,
  0x964f84a17d87a4abU, 0x8b909e889d9a107bU, 0x8b5792a38f878baaU, 0x7ea69f96a08f1783U,
  0x8e5e8b9867879a9bU, 0x7d929492b8a0004eU, 0x8b5c85995f869badU, 0x8ca18f8da8954b5eU,
  0x915e8b9a849a9d9eU, 0x8a928a9097961d75U, 0x96598f9e82929fb5U, 0x768e9898a69e2859U,
  0x9c5b8d91788f959eU, 0x86a3999d8fa56f60U, 0x996784938e839db3U, 0x8f9ea09bb69c1555U,
  0x91568e8c788891b1U, 0x8e8f8c8fa8aa0762U, 0x8b628d979282a6b6U, 0x779b96869f9f3150U,
  0x8863939d728b9ca8U, 0x8f9298948c983f5bU, 0x9865849c698c94abU, 0x819b899d8e99375cU,
  0x86549a9d979195a1U, 0x76a18f8494943c57U, 0x9e5a85977894999fU, 0x8c9a8e9298a8335eU,
  0x89578c8a7899a2b2U, 0x8ca3958698a82f4aU, 0x9b5685987b8ea49dU, 0x7d9c869786a02763U,
  0x9366959c8c82a0b4U, 0x799986979e990f69U, 0x9c5f9894a2918cacU, 0x7999918b90a83d53U,
  0x8d90999b899b8d86U, 0x99948b918b888799U, 0x8c898c90a19d9b9bU, 0x8c9b89a28c8a998cU,
  0x918c93a18e8b8da0U, 0x9c8a8a9e9a9da28bU, 0x9c939d8d878c91a2U, 0x94889997a0949a9bU,
  0x8d92949098a29688U, 0x99978b8da29f9a8dU, 0x8e8c9d9d9fa28888U, 0x9f8986999ba09b97U,
  0x898e99998b9b9e95U, 0x908f998a909ea09cU, 0x98998c9789908b98U, 0x9e9893a29d939d98U,
  0xa093978d9c9594a2U, 0x9a8f8b919a8a8e88U, 0x958a9189a2968c89U, 0x8f8f999b95949488U,
  0x9e948a87949a8a9dU, 0xa0958da0949b9c96U, 0x9599959488959b8aU, 0x9b99989489938e8bU,
  0x87a08ea1a08f93a0U, 0x8792a29e95869396U, 0xa2908b9e95969da1U, 0x8b8d90978b9b9198U,
  0x9a9890909f95958dU, 0x97959f898f939298U, 0x88889f8f9c9c8b8aU, 0x939b878c91958ba2U,
  0x90a0a1968a8a9b88U, 0x888c969a8f8b968eU, 0x988f939391939f9bU, 0x8e8e94978e93a192U,
  0x9e8a9c8c9d90969dU, 0x8893978c8a879c97U, 0x8c888d989b9e9889U, 0x868f8d92948a8a99U,
  0x9f92979c8c949a8eU, 0x9a9b969d938c968bU, 0x8b9ba29e989da291U, 0x899aa190988e9fa2U,
  0x9187918b88918a87U, 0x8e928e9e9a979ea0U, 0x9c919d9e99948791U, 0x91918e9f8e91929cU,
  0x94a08b8f92999297U, 0x90a099949a908a93U, 0x989c8f958f9c959eU, 0x97959787a2919288U,
  0xa29d90928fa28b9dU, 0x939295968b919e9cU, 0x868b9087a1929e8eU, 0x9b999892999c9796U,
  0x8897909f949f8d92U, 0x978a9499a18b9ba2U, 0x93a294998f899692U, 0x9198a1988c988e9dU,
  0x8f8d9e8d9c8b99a0U, 0x948a8a988f888b9eU, 0x9d9b928e96919499U, 0x9a8d91899d9f9195U,
  0x919d90968ba0879aU, 0x8b9b879786898a89U, 0x8d9c9f8796909c97U, 0x8a969797949b9f98U,
  0x9b9ea19b95889f90U, 0x9d9f8da098a0a19aU, 0x929b8d9fa0908d99U, 0x979a9b999f9d958cU,
  0x8d98988e90a08d90U, 0x889c968c94928a9bU, 0x92908d999c989c8eU, 0x95958e8a958f9c9cU,
  0x87898fa1969f9290U, 0x958d99988e9b8c89U, 0x879c989c8d949e90U, 0x8da099868a8d919bU,
  0x8e8b88918792a286U, 0x8d8b98998f8e8886U, 0x879b9d909b878a99U, 0x8f9b9c98898e8b94U,
  0xa08b94a19888a091U, 0x9ca090989da08ba0U, 0xa187a08e9196899dU, 0x90a08da2999ca089U,
  0x9b8ba2899f9b8a8dU, 0x929792a299899390U, 0x8d9c9c92a187a192U, 0xa08a919d8b998c95U,
  0x909890a097998998U, 0x8e898f9695a28798U, 0x9f8d989a91a19e8dU, 0x9e908e9b909a949eU,
  0x9c95949388929d9cU, 0x929f8ba1a2928a94U, 0x8d928b959a999698U, 0x8a929da1968c92a0U,
  0x8e888d8c8a909d9dU, 0x898b91979f8f9686U, 0x9f91a2929a97978aU, 0x8d958b8ea1a09393U,
  0x8f868f8a8aa0949bU, 0x938e8d9b95959e93U, 0x958b8b95969f8a8bU, 0x919193998b94a091U,
  0x8da08b908994958fU, 0x9b9c8d869698908aU, 0x8b92998b98a2a093U, 0x9d96a09f9091899cU,
  0x8d8c9b8d9289a086U, 0x8f8890969c8a8c9fU, 0x879b9b9396979f96U, 0x929d91a290919da0U,
  0x938f8c8e9f9c8794U, 0x959789969e92908aU, 0x9695989d9d939392U, 0x9f8b8a8c9c938c9eU,
  0xa2a08c978898978dU, 0xa09f979d9d9ca09fU, 0x9292999b8a879b8eU, 0x9b87918887a18e9cU,
  0x989a9a899a99988eU, 0x878e8fa19195888aU, 0x9b959f9b9a928ba1U, 0x9a8a99898987929fU,
  0x8a93939f96909d96U, 0x98a18991a0989891U, 0x999f999198959a9dU, 0x9687a287939f8a90U,
  0xa2878f8e898d978cU, 0x998a928e9c9da1a0U, 0x91a09c9894999095U, 0xa0878a89889b8d97U,
  0x8c96998f9d9798a1U, 0x9b9a92869b88919eU, 0x95a19f88a29d8c91U, 0x968799989b999c8bU,
  0x8c919c95889d8788U, 0x899f949a909b9697U, 0x98a09288958f8a9fU, 0x938e938da18b9b9bU,
  0x94929f869a96959bU, 0x9089a09e988e8f87U, 0x88a097a28a928a8aU, 0xa195948c8a9a8e9fU,
  0x939b988b9a99978fU, 0x8ba0938b99938a8dU, 0x8a8c8d8a8e9a9d87U, 0x918b9e9c988a9694U,
  0x999a889396939598U, 0x98a18f968a8c9a9bU, 0x8f8b9499a09f9c90U, 0xa199a29f8c918797U,
  0x90a0989c9094958fU, 0xa198959b8a9d9890U, 0x9287889a9887888bU, 0x8794998d878d9891U,
  0x9988919c9c8d8e97U, 0x918c879595a1a091U, 0x9f918e9fa18c979eU, 0x9495978a99998b9cU,
  0x8f8d94919a948c95U, 0x87a18d999b8e9888U, 0x8a9f8e9ca0919a9cU, 0x8f8d94978e9c9d9aU,
  0x8d91918d92959c98U, 0x8f969a96a0888a8dU, 0x8b94978f88a1949bU, 0x918c999a889d898eU,
  0x96a2a09aa0979898U, 0xa0a19f8a938a9d96U, 0x9fa19d8d97968d8aU, 0x96a09e98939aa296U,
  0x89a29f928a8c9f95U, 0x9896929992999ca1U, 0x8b949d8a9b8f8b87U, 0x9ca08da08e8e9989U,
  0x969d8799929a8f8cU, 0x878986958b889989U, 0x8ea0939a879d8695U, 0x8a908c8d8e8c9a90U,
  0x9c9f9f8d91879f8aU, 0x9893988e888d909eU, 0x96938d96938a9f92U, 0x8f8f969797998a99U,
  0x8f929b9c9ba18a99U, 0x898998949b99919cU, 0xa096928e919b91a1U, 0x9d87909389888b8bU,
  0x9695a1a098999b89U, 0x9a94a186939a9088U, 0x92908d928b8e8b98U, 0x8e8b889e8d9f919aU,
  0x9f97968ba19a94a0U, 0x929e9aa290968990U, 0x9b8b8f8a91929490U, 0x9b9f9f9f8e8e9e97U,
  0x87989996968a8a9fU, 0x9e8c8c8f97879490U, 0x9c8a8b9f9ca1869eU, 0x8796879799959897U,
  0xa19d8c8c96899ca0U, 0x8c9395929590a08dU, 0x8c9f8d939f91939fU, 0x9f979d8c8e8f9e91U,
  0x9891a18f8d90989cU, 0x96908b9e9096a18fU, 0x90979d86918d8992U, 0x8fa08e88889d8793U,
  0x8e9489959c9f888bU, 0x9d87899892a09287U, 0x9ba19f8b8f9d8da1U, 0x8996a0898b999b9eU,
  0x8c87a0a0928c989fU, 0x99938f9493889d87U, 0x9c8a8a8c9b9e8a8aU, 0x9898948a9c8c8f8cU,
  0x8d929392939b899cU, 0x8888959194879a95U, 0x9d8f938d939090a1U, 0x9a8e889b868f9a89U,
  0x9389869e968b8b9eU, 0x9694a2a0948da18cU, 0x949e87a1969d9c94U, 0x908895919194939fU,
  0xa097959b958c8994U, 0x9a9793889aa19790U, 0x9a958e9d9189909aU, 0x91a18c90979d8e8cU,
  0x87a08991919a9e98U, 0x908a929d8e9d9091U, 0x8c909ea1948c9e8aU, 0xa090889c929f8e8cU,
  0x99989fa18d95a193U, 0x86959ba09c97998eU, 0xa29c8d9e9e919195U, 0x9ca0999aa18d9f8fU,
  0x8b94928a8c948690U, 0x8b9b919ea0968b86U, 0x978e97948b968b8cU, 0x8e8c8989898a8f88U,
  0x869c978c94919d92U, 0x8e93919d8a9c8999U, 0x909c889b96949a99U, 0x968c939c93949f93U,
  0x9e90938c9c9a9292U, 0x8e8e9c878a9b9c95U, 0x9c939193919d8b9dU, 0x8c8e9f8ca0a19e98U,
  0x8686869a938c9999U, 0x9d9ba298a0879a97U, 0x8f938e8d979c9c99U, 0x958a8d9a95939597U,
  0xa193998b9e8c9a9dU, 0x8c9890878c9a8995U, 0x8b959f9489999597U, 0x979e8f978c8b928eU,
  0x959696959a9c9a98U, 0x8d968b989392909cU, 0x99908695928f9d8fU, 0x899d9e9490948691U,
  0x89988fa19c969a93U, 0x978f988c9c9f9894U, 0x9e91889d9e98949aU, 0x8f928697a0929488U,
  0x9c92898e949f928cU, 0x9e978da0989b9090U, 0x919787869191a093U, 0x8a8f9a9e9b8c9293U,
  0x99868d8f878a9f8aU, 0x928c899e9896a29fU, 0x89969a96899a979eU, 0x9a958a9196978c92U,
  0xa08b988fa194a19aU, 0x938c8899909c8896U, 0x9692a08e9a8a8b92U, 0x928f8aa18994a08eU,
  0x9c939c9e98938c8bU, 0x86969e8e88919991U, 0x8f92979f8a95999dU, 0x8c8d8c98988894a1U,
  0x8e99889f96978e9dU, 0x968d8a8e9d9997a0U, 0x98928b9f9e8b8d92U, 0x998a9b89889b959dU,
  0x889a89929e989c9cU, 0x99918a8d928d8a9eU, 0x888b9e928d899f8aU, 0x8b8ea19f90a09f9aU,
  0x93929f9789988895U, 0x898e919b9a879e9cU, 0x9b90958c8c96898fU, 0x989f948a8d8a9087U,
  0x899e96958d968d99U, 0x8ba0938d9e959798U, 0x979a9b899d9c9a8cU, 0x9a989b9689919a88U,
  0x8887a19092928d99U, 0x8a96959897948a93U, 0x8e8f95979ca09b8cU, 0x98a0989698969e99U,
  0x938aa09e979a92a0U, 0x92969b9a9c9d9488U, 0x9494889991969388U, 0x998e879f89969b94U,
  0x9c92999d8c89998aU, 0x9f86949a998d9c9fU, 0x8f9e9e918aa19491U, 0x8d8c8f9b9988a18dU,
  0x889c9e948a9e9c99U, 0x9c999a909a949590U, 0x9a9b8c89988d9391U, 0x928c9d938b8ea18eU,
  0x939e928f99938d8cU, 0x889fa1899b8f87a0U, 0x898d86979289979bU, 0x94988d8b9b918788U,
  0x9390a2898b949794U, 0x908b939c959e979bU, 0x8e909c8e8997909bU, 0x869f92929992899bU,
  0x9a8aa0979d8d9a93U, 0x8b948e8b91918895U, 0x86909d889098a19bU, 0x998e9d948a9e9a90U,
  0x8695a09a9897a096U, 0x8c9b9a9b86a08c98U, 0x979297959e86868cU, 0x879b8f958f8f9c8dU,
  0x998996969297909aU, 0x968a87949e879b86U, 0x8897898f978a958aU, 0x9097899e899b999fU,
  0x8e8e8f8c8f978aa2U, 0x9c8e959e979489a1U, 0x9e87949ba1889c8cU, 0x9c96898f8a998886U,
  0x948f8d9b968f9f92U, 0x9e9b8b8fa19e9395U, 0x97878c978e978e9aU, 0x8e8b948a898aa288U,
  0x988a9f9f8e8c9c8aU, 0x94898ba2948a91a1U, 0x95969c9b898d8e8bU, 0xa09f9f989397a097U,
  0x999b9e9c8c9f999eU, 0x9e9992909a8c8e9dU, 0x9f8f9e8f90899d86U, 0x8e8a8f889c999688U,
  0x889086878d9b9b9bU, 0x929a8c9a8f90909bU, 0x949e899997888b97U, 0x988d8d8a9c919186U,
  0x878b9b97939b8c97U, 0x9e9d8a888da09c8bU, 0x9698949b8c8c9398U, 0xa29c908d93878b94U,
  0x899d8b908c8b9689U, 0x979388879f949799U, 0x9d969e998da1949eU, 0x91948a929f958f8dU,
  0x98948c9f988e879eU, 0x94968da19ca09d98U, 0x9e8f9d9d8f93928dU, 0x998e989389a29f98U,
  0x929d908d96959c9aU, 0x8e878e9f8799a087U, 0x978991949b968d96U, 0xa18d8f9c988c9c91U,
  0x9e8a97a28ea08b8eU, 0x898b9e8c9e98979aU, 0x989f968696a28989U, 0x888b92959496968fU,
  0x91a29c89a0a2a295U, 0x919499898b9e93a1U, 0x9d898d9689989095U, 0x888d9f8c93a19090U,
  0x888f8c94919f939fU, 0x8998939995988e8eU, 0x919a959e9d889e98U, 0x9e9c8d919b8c959bU,
  0x989d9287a2899889U, 0x8e9d938d91989b8eU, 0x92969798998a9b89U, 0x9d8d9f9d99879c99U,
