/**
  ******************************************************************************
  * @file    network_data_params.c
  * @author  AST Embedded Analytics Research Platform
  * @date    Sun Jun 16 19:52:05 2024
  * @brief   AI Tool Automatic Code Generator for Embedded NN computing
  ******************************************************************************
  * Copyright (c) 2024 STMicroelectronics.
  * All rights reserved.
  *
  * This software is licensed under terms that can be found in the LICENSE file
  * in the root directory of this software component.
  * If no LICENSE file comes with this software, it is provided AS-IS.
  ******************************************************************************
  */

#include "network_data_params.h"


/**  Activations Section  ****************************************************/
ai_handle g_network_activations_table[1 + 2] = {
  AI_HANDLE_PTR(AI_MAGIC_MARKER),
  AI_HANDLE_PTR(NULL),
  AI_HANDLE_PTR(AI_MAGIC_MARKER),
};




/**  Weights Section  ********************************************************/
AI_ALIGNED(32)
const ai_u64 s_network_weights_array_u64[12373] = {
  0xbe04e470bdf4e354U, 0x3e6f9e8fbe72319fU, 0x3e5efd533d24739bU, 0xbe20368d3da07da5U,
  0x3e5137bb3dba1e35U, 0x3dd41e143e2e1874U, 0x3ca904ec3bd59d82U, 0x3d4881d4be115938U,
  0xbd7ff94abd703c60U, 0xbe7b29293e5a1052U, 0xbe52c1693e0e76d8U, 0x3e363bc6bdcd3483U,
  0x3e08719a3e873d84U, 0xbe87ad3b3d87b71bU, 0xbda68a683dde0078U, 0x3e279415bc5b10d5U,
  0xbd8683783e377945U, 0x3e009286be892850U, 0xbe3ca8edbe428ff1U, 0xbd2764efbd23d338U,
  0xbcce028ebe7c0019U, 0x3d0b0b8ebe7fa5c4U, 0xbda464373cafb358U, 0xbc91c59f3e10bbfcU,
  0xbe850c423e0d57a6U, 0xbcd48f893e500675U, 0xbe8116d03d046a96U, 0xbe55df9d3de24725U,
  0xbe46acd4be7cf100U, 0xbdaa3aeebd8b334eU, 0x3d4db1403e48ce3cU, 0x3e490e08bd000464U,
  0xbe6c9405be746bd7U, 0xbe09d728bc9dde28U, 0xbde619923d0804f8U, 0xbe21799dba7e8400U,
  0xbe4e038e3e43b30eU, 0x3dd762a83e8085c3U, 0x3e27b29cbe55b34dU, 0xbe80f4cebd631108U,
  0xbe1f69ac3dee50c4U, 0xbe16d5bbbe1bc120U, 0x3dd94d9cbca49d29U, 0xbd83b6333e18227dU,
  0xbe81ef63be0b778aU, 0x3e2e2c403dbad002U, 0x3dd128a63e474b5bU, 0xbe4e48adbe53cd8dU,
  0xbe489cddbead14c1U, 0xbdbc0e8abdf38573U, 0x3e4bfc9bbe6f9e8eU, 0xbb503c033e4a6549U,
  0x3bd0393d3d6af945U, 0x3de75c253e634e07U, 0x3de3caf53e2287c2U, 0x3ce7ec56be80f7bfU,
  0x3e4f6a163e2c99d8U, 0xbe36e2b3be818e74U, 0xbdec4e84be130843U, 0x3dccb2a1be1beb5dU,
  0x3e2d8eedbd14a43bU, 0xbc9801143dbb90b0U, 0xbde9a665bdc1ecb7U, 0xbdc96da53e46b4d0U,
  0x3e08cf44bb2db2d6U, 0x3de4ae8cbd61875dU, 0x3b3cace03e2f7a3fU, 0x3e63d7c0be345b82U,
  0x3e8681e43e61f4c8U, 0x3b79d252bd99b195U, 0xbe1d06b0bd001a2eU, 0xbddb68973d3c858aU,
  0x3e0e9a2abd3e486eU, 0xbe0fa8a13e33f097U, 0x3d20b5323d951547U, 0x3df3905a3da601acU,
  0x3c8f5cc6bdb85ec7U, 0xbe8cd3f23e6d120aU, 0x3bb7f883be687850U, 0x3dcb6a323e59a72eU,
  0x3ce24cacbd03dc75U, 0xbb8eac9ebd5e980aU, 0xbe5092fd3d67827dU, 0xbe3386fdbda13d79U,
  0xbe852adf3e258355U, 0xbe1c59bbbdf1e7cfU, 0x3b182fcc3e34cde6U, 0xbe8adb12bdc01835U,
  0x3e1137943e788579U, 0x3d519405bc6cefdfU, 0x3d499c9dbe4c4facU, 0xbdc3db3dbc38f8c1U,
  0x3da92dc5bc543b71U, 0xbe79325e3d9e8c6bU, 0x3e5c83d43d28a6d6U, 0xbe43ffe13e2474e9U,
  0x3dbe42b1bd242370U, 0xbe823fdabd3d4212U, 0x3e1d94593e2f2406U, 0xbe13d69dbd48069dU,
  0xbe00f550bdce6168U, 0x3da3017cbd314bffU, 0x3cea84c33e62803dU, 0xbe55955b3e24440bU,
  0x3dfae534beadbd7bU, 0xbe4e2175be2aea9eU, 0x3e412287bdeedac2U, 0xbd99eaba3dfe31a1U,
  0x3e3edb97be02104eU, 0x3cc4eb1d3d16152fU, 0x3de186253e1ed05cU, 0x3d1706643cf54c32U,
  0xbdc2fc973e39c004U, 0x3e4ee9c13da5eb76U, 0xbd9042ecbe118f9eU, 0xbcfe051bbe84ea6eU,
  0xbd126e043e514017U, 0x3e0031edbd426361U, 0x3e417f09bdb38542U, 0xbd38506a3dc1b567U,
  0xbe074df93e85c8feU, 0xbe02f7d4be5c43d4U, 0x3e96639f3e008bbcU, 0xbd3ccae93e7de8b6U,
  0xbd503e383d96bb75U, 0x3d7b64d5be630fb8U, 0xbd9c84043d4721b4U, 0x3e03cb9abe346b9dU,
  0xbe9943c6bdbccb4aU, 0x3db2dc2fbdbe6b1bU, 0xbdc3f976be6adfd7U, 0xbe52d1373c59b18dU,
  0x3da169e1bebe8ebaU, 0x3e4d1d9cbca05b63U, 0xbe0c588e3e976ee1U, 0x3d37ae3dbe3d990aU,
  0x3d5a13cdbdc4eccaU, 0x3dbb11f63df1327cU, 0x3e1a7d243e8bfcd2U, 0x3dfca11fbe88121eU,
  0xbda5f0c5bd99269aU, 0x3e2c8caabd9802b6U, 0x3dd02c1e3e1151ddU, 0x3d1b3f48be01e842U,
  0xbe0185da3dcf3a47U, 0x3e5a35bdbe503ebcU, 0x3e3cbb86bdc7ee63U, 0x3e17645b3c4c36dcU,
  0xbdb9465dbe4e465fU, 0x3805cab63ea5a163U, 0x3e3c2b373e631be7U, 0xbc9bc9d83bd7d07aU,
  0xbd69a6b93da6c58bU, 0xbdf21e9c3db55827U, 0xbd0b78f33e483f6dU, 0xbe262369bcf05dbeU,
  0xbd205a72bb99376eU, 0x3ea85d363e62a2bdU, 0x3ea98c52bcd7def7U, 0xbde798293dd36f72U,
  0x3e4e66e7bd23ce2dU, 0xbe214635bcbd4e24U, 0xbd9dce9fbca50deeU, 0x3e050718bd21f925U,
  0x3d822fc33de96d94U, 0x3d83378cbd759213U, 0x3e926a093e376ca9U, 0x3cae8bb33d954a68U,
  0x3c7ca3b7be7c31adU, 0xbe11541ebe19c929U, 0x3dc9febbbb57cc36U, 0xbcdfca1d3c7faeb0U,
  0x3c7ae5b3be082961U, 0x3e46cd55bdb81e1eU, 0xbdceb58bbe53b688U, 0x3e7f20783d929ba4U,
  0x3e24b38ebddd64b5U, 0xbe8380e43dac16ffU, 0xbe5ad44bbe4ece3dU, 0x3dc0754d3e13ff74U,
  0x3e1af0053d94efddU, 0x3e833c2abe6ba328U, 0xbe284dfcbcbc7e8fU, 0x3e6a19953db7d48eU,
  0xbdbc5116bdd4cc8fU, 0xbd2c4c81bd5c694eU, 0xbdff3d75be9c9b2aU, 0xbe78bbe33da1c6feU,
  0xbe62ea7c3e469aa4U, 0xbdbd746abbef356cU, 0x3d1df6433d9427abU, 0xbcb59d853d4dcaa7U,
  0xbd2d6f32be56a541U, 0x3dc9a96cbe9ce420U, 0x3c2e8d4a3e504431U, 0x3de061bc3db57b1cU,
  0xbc9290d9bcb7f67dU, 0xbc5cad013d448eb6U, 0x3e11e5633d97f08aU, 0x3e253b26bc9d94f1U,
  0xbdc3a4a63d33ed23U, 0x3ca2bbbfbe6075aaU, 0xbe8845a3bd1c6aabU, 0x3cc59db53eb018a7U,
  0x3d884e283b3019dcU, 0xbd265981bccb715dU, 0x3ea9e1633d810c4bU, 0x3e4429e7bdd942feU,
  0x3e35d6b2bd3334efU, 0x3e43f56ebe258854U, 0xbe2630a1bbf05cd1U, 0xbe63ed793dba3ed5U,
  0xbe4c6fc43e839cb7U, 0xbe778282be02ee3aU, 0xbe8b850d3dbb7db5U, 0xbd1885debe02af29U,
  0x3db4f4dc3e11dc65U, 0xbe32bd223e940d02U, 0x3d639aff3e912cfcU, 0x3d6ae870be62985cU,
  0x3da7ca30bc916ddaU, 0x3d11e9bf3d783e7eU, 0x3e80a94cbdbc6391U, 0xbe5108aabd464803U,
  0xbcabb4833e717d04U, 0x3c70a4d200000000U, 0x3b5f3556bc920d07U, 0x3dfd70c43c9eaf27U,
  0xbe334d6b3cb6050bU, 0x3cc3ff71bdd8e519U, 0x3e446cdebd0da589U, 0x3ca488f33de09ae3U,
  0x41f865d1400165bdU, 0x3f6b9f6341fcf242U, 0x41e100b3402bc7afU, 0x3f90887f41e1c70dU,
  0x40934d233f1998c4U, 0x3ea548673f17d2f0U, 0x4177f744404eac70U, 0x41cfdcb7400c2dceU,
  0xbb1b69a1bfca444eU, 0xbfa4344d3d3550f3U, 0xbcc34186bfec1514U, 0xbfc9ccd9bd7d38a5U,
  0xbf521b6cbfcc747cU, 0xbfa85504bf80ba1aU, 0xbed91860bf30db10U, 0xbe335840c023d40bU,
  0xbd9ca0dfbe9696a6U, 0x3ec0c3bcbed659f2U, 0xbec85057be92c0edU, 0x3e3066ca3ed51566U,
  0x3eac99ef3da4d075U, 0x3dd153453e8ae9c2U, 0xbea339e9ba442b6cU, 0x3eaccb233e5efe2cU,
  0xbe66c93ebeaf7380U, 0xbe819f88be33ccffU, 0x3ea97d2b3de10cf0U, 0x3cb41ecabdcd05d9U,
  0xbe44cf45bd528e7bU, 0x3ea0ad79bd3821ceU, 0xbe6dfb8cbf0a5ca8U, 0x3e0c8f3e3f15cd8fU,
  0x3e08b4e43e9d040bU, 0xbe53486e3ed027f6U, 0x3e3892243e4bfe83U, 0xbdc9df9bbdd49b6dU,
  0xbeb453d7bdfe0a82U, 0x3eaa0535be2fb198U, 0xbe130304bed36f7fU, 0x3e900974bcbc2fc4U,
  0x3eaef26fbe73f213U, 0x3d846e90bed9e2d8U, 0x3e46bc513eb5a08eU, 0x3c9846ff3e1a52cdU,
  0xbd0481debdf8fb7bU, 0x3ead1e7e3dbd39b9U, 0x3ea42b36be73939dU, 0xbd622209bed74f95U,
  0xbe7d64cb3d4ebc5cU, 0xbec4da3d3e49b932U, 0xbe5fed4cbebe1f79U, 0xbef6d28a3cf94329U,
  0x3eb65a50beced7d1U, 0xbebbf7cfbe7b2a65U, 0xbf250fe3be7172faU, 0x3ef19adb3e904df4U,
  0x3c5eefb73dcd68f8U, 0x3e5434123ef524a4U, 0xbea79633bdcfee2bU, 0xbc039bdb3c4fb6cfU,
  0x3e4270053f0135aeU, 0xbe8d08d8be9496b2U, 0x3ec2da97bf03b514U, 0x3e39d6483ecfd2a5U,
  0xbe97cce13d922ac8U, 0x3e608076be1266f5U, 0x3eab0d3dbee09d8dU, 0xbf0da2ccbf2306c8U,
  0x3eb8c02abd836647U, 0x3e0c03cabdd9d7a4U, 0x3e247750beeb2045U, 0x3e0a409b3e82ff72U,
  0xbe368462be6009f3U, 0x3dd6b1f33e03cd30U, 0xbe597785be511464U, 0x3dd32d01bec7f3d9U,
  0x3eb7c01ebed33e28U, 0x3ec76f5b3eb2e022U, 0x3c87a87ebdd91580U, 0x3eced6633e229b64U,
  0x3e13baed3eaa1a39U, 0xbe8b5f053e53062aU, 0x3ea4d112beb9d70fU, 0xbea1cd1fbea68a69U,
  0xbecb5ae7be0bf123U, 0xbe9a48bfbec13f88U, 0xbe9635973e9e4375U, 0x3bf3ca00bec2f95aU,
  0xbdc05fc1be60232bU, 0xbe83f8813b4b6cfdU, 0x3da546783ee907dcU, 0x3ea9f1a1be5ff0a2U,
  0xbe87795b3d6450afU, 0xbdba027cbeb78fdaU, 0xbed763ec3e80b27eU, 0xbee2e78d3ec53d06U,
  0x3e3bfbf2bd8899eaU, 0xbe4f57363b483c6dU, 0xbe688df3becf6bbdU, 0x3e86c2d33e912a61U,
  0x3e16fd0ebe3721e2U, 0x3e36ca623e08f33cU, 0x3ebd5fb93e057ba4U, 0x3ea63f303e0c222bU,
  0xbe417f7dbede02faU, 0xbe8f18c5be212032U, 0x3e8851b6be05c42cU, 0xbe76b0793e66098aU,
  0xbe8bd5bebe6c7ac4U, 0x3e8edaabbec73e0aU, 0x3e919036bec27259U, 0x3e86a34f3aa61843U,
  0xbe0442263e461a21U, 0x3e8630d13e0b6075U, 0x3e2ccda7bd6a2ca1U, 0x3e6b26d6be2e9689U,
  0x3d9915ddbdd5b77cU, 0x3d8f39f43e9a7f7eU, 0xbde59a91becdc84eU, 0xbe57126f3d1a1ce9U,
  0xbe8823e53c792efcU, 0xbef87bee3db9bc18U, 0xbe6479653ebda472U, 0xbf066218be2fbf43U,
  0xbefce021bc889d18U, 0x3aa8db3cbe8396b2U, 0xbddbe0ecbd565246U, 0x3dca68293ed73a8eU,
  0x3d44c802beafc7dbU, 0xbe6bc4253804d159U, 0x3ee42c70bcdfb4b9U, 0xbf1577a33cc1c047U,
  0xbe9e95bebef72675U, 0xbea2dc3c3e197f46U, 0xbf076ff1becaadb3U, 0xbe1053b4bf059a76U,
  0x3d6296a73e571641U, 0x3df909f33eaaed39U, 0xbe30f5283ec81688U, 0xbeccf47bbd61ebacU,
  0xbd6d3f9bbe32382aU, 0x3eee4bcfbe8d4008U, 0x3d468430bf0168e1U, 0x3de8f9763e755b49U,
  0x3cff3394bd1a6e2bU, 0xbca54e6bbc475de2U, 0xbcb90f2f3d8e3123U, 0xbd1fdde2bd5f2acdU,
  0xbc1217783d5135b5U, 0x3d5b5b083cb67eaeU, 0xbc96573ebce1bb4dU, 0x3d03259c3dfc6140U,
  0x3e27a7f43ec744f1U, 0x3e57928a3e7ba715U, 0xbc1556b6bebbc0e8U, 0xbe92499ebeb8978dU,
  0xbccc6d583e76a249U, 0xbe954e95bd6bf1c6U, 0xbef347ac3e8b6de5U, 0xbecf0b4cbefe4b83U,
  0xbedcbc47bcaf568dU, 0x3e9b85203af82f89U, 0xbec9c03bbcf33b1fU, 0xbd40a9a3be4ef130U,
  0xbea8daf1be49d731U, 0xbe9f569e3ec075cdU, 0xbe70b57b3d4f43b4U, 0xbe8974cfbecef1cbU,
  0xbe5d7017bd871053U, 0x3ead5739be8cbb73U, 0xbef5b997bec19391U, 0xbe7fe640be198d64U,
  0xbd840afdbea99707U, 0x3e7a6fc53e168887U, 0x3e6794d43ebbd45aU, 0xbe811415bda84814U,
  0xbeb000d9bd2a24e9U, 0x3e624710bd825ec8U, 0xbdbbe7043e13f96aU, 0xbe70db8bbef3ae6fU,
  0xbd1075d53e81604dU, 0x3ea413d73e692776U, 0xbea810dbbe3e7b9fU, 0xbeb918c93ea2a99aU,
  0xbe761b213e7c269cU, 0x3ecd3c1ebe479a64U, 0x3e828ca63e86ef35U, 0xbea6707e3e278e87U,
  0xbe9ab5fabe5d94b7U, 0xbf00d245bd919d27U, 0x3e7a8c263defd925U, 0xbd662342bdefe2a5U,
  0x3c8a8f273ec973e4U, 0xbe011be3bf04890dU, 0xbe8e27473e34f4b9U, 0xbebcb9f63e9991ceU,
  0x3eed2f38bc4ca0e0U, 0x3ead80473e5b5c2dU, 0xbe2d2ec4be5f3e49U, 0xbe5bd6b3be01520bU,
  0xbd044398bea0c613U, 0x3c503fbc3ea68473U, 0x3e09beb7be1ac89cU, 0x3ec6ca23bddb8997U,
  0xbeca1175be801649U, 0xbef2f17dbdeea6cfU, 0xbe03f7ea3dc5f483U, 0xbec60a5fbdc53d42U,
  0xbe64b631bca6a874U, 0x3d50d563be834565U, 0xbeec407ebee46753U, 0x3eb4564cbec9cce4U,
  0xbe854a4fbf0552aaU, 0x3d7d92f83c8e57b9U, 0x3d3927c5be52e881U, 0xbe70ea46be9cdd82U,
  0x3c7cda1b3deb4e57U, 0x3e3651bebecec54bU, 0xbe397267be8f4a52U, 0xbe311dc93c2dc737U,
  0x3ee94a03bed96d82U, 0xbee317bb3e7e9203U, 0x3e4eade5bec45f4bU, 0xbe5d9093bc9fc7e0U,
  0xbf0121423e952445U, 0xbd79c7e83cea954bU, 0x3e342ee3beabb1c1U, 0x3bb03dc0bd0bf50dU,
  0x3bdd4552be867dbaU, 0xbea01cc23bf09362U, 0xbeb120b43e2c93c0U, 0xbe0b105bbe08affeU,
  0xbe53575b3ed05bdbU, 0x3d0f6e603dba0446U, 0x3c693ba6be88d0caU, 0xbd916c2cbe7f8603U,
  0x3ed244cbbefe2f61U, 0x3d50e0823efc676fU, 0x3d158e9bbeb6d75bU, 0xbcc9a3c6be0c1abaU,
  0xbf0af5fbbeaf7f70U, 0x3dc01661beb58246U, 0xbe21ce093bfa02baU, 0x3e840273be82dc73U,
  0x3dcea32fbdaf10b6U, 0xbea196163db20fedU, 0xbe88d8f5bec7a715U, 0x3e9f489e3ea1401cU,
  0xbe7791cebed9b3d5U, 0xbe9931223e5e98caU, 0xbee5d5eebf0c7565U, 0xbe75acd33ebf366bU,
  0x3e03a402be599528U, 0xbe0c7e303e75e7f5U, 0xbe3027f53e77130bU, 0xbe89f19e3e47d68aU,
  0xbef87d993ea99e18U, 0xbeaa5636bdf404c3U, 0xbe6c0a57bef86877U, 0xbe48e9b53eb5b259U,
  0xbd87f005bd9365e6U, 0xbe7799773dcc0105U, 0xbde8d8463eaf4dccU, 0x3e53937dbeefa3e5U,
  0x3da238483ebefcc6U, 0x3e1482debea41d91U, 0xbeafd1a53bbd808eU, 0x3eaf9ea1bec9bee7U,
  0x3e2b99c83d4dd9c5U, 0x3dee3645be24a8daU, 0x3eb5cdf53d07c38fU, 0x3e26ee553d19f748U,
  0xbed4ca2b3ec54b60U, 0xbea5fed7be1bb431U, 0x3e4aa1c0bf18d647U, 0xbd9eacdbbddd1f2fU,
  0x3ebed35ebedd3babU, 0xbc8f34e0be04a85eU, 0xbec920dfbe828b24U, 0xbee2c19cbef6f85bU,
  0x3aa7f984bb99cb84U, 0x39b074b2bc26225eU, 0xbbda0427bc9cc579U, 0x3b8bad6ebbdcad42U,
  0xbaf9eb04bb08718cU, 0xbbbd78e2bb848fe5U, 0xbb5526bf3b3aea8aU, 0x3c1193ddbbf83af7U,
  0x3ccb12a7be968baeU, 0xbe015eed3d5b206dU, 0x3eff8259bebf48f9U, 0xbeefa9fa3c57a597U,
  0xbeb516493e9a802eU, 0xbec47071bd622ba6U, 0x3efb91b53d4b6fb5U, 0x3d315386be0652bcU,
  0x3e84b3b4bee9ffb6U, 0x3eb505c13e8669dfU, 0xbeb00404bea8dde6U, 0xbe218ef9bed68e79U,
  0xbe19f1f8bea1528bU, 0xbebbff86beb0ded0U, 0x3e35f951bd822fbdU, 0xbd0352e23d90add3U,
  0xbea12fe73db4f139U, 0x3d132014bebd7e66U, 0xbe7666b6beff4ee8U, 0xbf1098113dc45969U,
  0xbeca11e93e87be4dU, 0x3ec6097abe78d765U, 0x3f0aaef93e264752U, 0x3f3a06af3d991431U,
  0x3e75bb4c3e86893dU, 0x3eda79d23e0ca2b8U, 0x3e1915ec3eb75cf5U, 0x3e9ba04b3ef83c28U,
  0x3dcc5b61beec2335U, 0x3dd23f0a3e784cf3U, 0xbe03780ebe9a4d57U, 0xbb3b0d6d3f2054bcU,
  0xbef2f026bd049c3cU, 0xbe3eafe53e9fdbd0U, 0xbd3409b2bd9e99f2U, 0xbe53b6403cd703b9U,
  0xbd3971f6beaa19c1U, 0xbe68e470bea04e88U, 0x3ce77ca1bef931a2U, 0xbe8e0caebe91257dU,
  0x3cdbe457bea33b1fU, 0x3ea32ca5be5dc49eU, 0xbe351f5cbe4068eeU, 0x3e156cd43eb53760U,
  0xbe1b5f0a3d6dba88U, 0x3e8d81a03e3905ffU, 0xbf032d94bf0371bfU, 0xbe5f45d03eac45b3U,
  0x3ef5ae663dde482dU, 0xbf2e29f13e7b361bU, 0x3e008cbabe593489U, 0x3de56a15be5ed3b6U,
  0xbd9d8787becb37b6U, 0x3e5f3eac3e2482aeU, 0xbe842a5d3e0f75c6U, 0x3e3497ea3f0656d7U,
  0xbe1e889fbe8b4f5aU, 0xbea1b92c3e8c23d6U, 0xbe06e54e3dca147bU, 0x3eb02c94bf113a33U,
  0x3ef34d313eefa41bU, 0x3ed2b14a3d8f2caeU, 0xbec646703e8d5e2cU, 0x3d227d233ece0ddbU,
  0xbdf8708c3c7c87eeU, 0xbc288a1c3d80c996U, 0x3db85459bc9801cdU, 0xbd06a79b3daf98fdU,
  0x3e0332bf3e1db38fU, 0xbec527313d704f55U, 0x3f0573e9beadae4aU, 0x3a5f298b3ce554f6U,
  0xbeeaab273dd602ddU, 0x3e6435d9bebda014U, 0xbcb88252bed9c2afU, 0x3db5c14bbf0168abU,
  0x3ebbf3cfbe4ac615U, 0x3d80bd3dbe357fa4U, 0xbeca654b3da8ec49U, 0x3e3a4725befc5e8dU,
  0xbe07ba7dbe16e712U, 0x3da9daa5becbf637U, 0xbda69d113de75761U, 0xbea3cad0be8e3c4fU,
  0xbeb2453abe7c646bU, 0x3e97e11a3ebf5ef6U, 0x3e2268683f10c8faU, 0xbd1c4eec3f19cc73U,
  0x3ed0e52ebe237586U, 0x3e8b5b9f3ee0d56bU, 0x3eb06cdf3ebd5301U, 0xbdbd7ad83ded4bf2U,
  0xbe1ae2783e4129c5U, 0xbee7ce153f09e939U, 0x3ccc369dbe2f1f42U, 0xbdd3a86abea3022eU,
  0x3d52c6d33e09e759U, 0x3e66fa51be6bf251U, 0x3f04e0d0be98e85fU, 0x3e9629e93e44a44cU,
  0xbe40976e3ed0b79bU, 0xbe9050413f06706cU, 0x3edb544ebc98eda9U, 0xbeaf91d1be05816dU,
  0xbccbbce63f0b7e3aU, 0x3eb7ba08bd33c078U, 0x3bb56b3a3f175200U, 0xbe4abfdc3e9f0f01U,
  0x3dd78cd63ed86bd0U, 0xbe9092ae3e040873U, 0xbe73eb063e149635U, 0x3ec908ed3e5023d1U,
  0xbe608eaf3ec30dccU, 0xbec7c06cbbfc5583U, 0x3dc1085f3eb64290U, 0xbee1bb133dc5b923U,
  0x3ef4e3b0bdb211e5U, 0x3e84c95d3e9f4e49U, 0xbe5a9a46be1fa58bU, 0x3d3a78393ef56f76U,
  0xbdd42692bdb0e823U, 0xbe7edcfa3e8df8dcU, 0xbe2ae1b1bea5924aU, 0x3e6cd02dbe10a0f1U,
  0x3d1fe09dbe7b4626U, 0x3bc94056bda56dd3U, 0x3f0a3169bd9cb457U, 0x3ed2b93f38fab08dU,
  0xbce47c653ec426a6U, 0x3f220bdc3f0d38d6U, 0x3da1cae8bd03792eU, 0xbe5366f6bd8fdbe7U,
  0xbce2cfba3de82de1U, 0x3d7366dabb8c7bf3U, 0xbccce0733e0bb3efU, 0x3c8b0b7a3d35c198U,
  0x3dd451273d807886U, 0x3d153e4d3c6f392aU, 0x3e41ea833d87ceeaU, 0x3e7aeee43e0ddf93U,
  0xbf2d3d3bbf2e5176U, 0xbf2b14c6bf2c2901U, 0xbf28ec51bf2a008cU, 0xbf26c3dcbf27d816U,
  0xbf249b66bf25afa1U, 0xbf2272f1bf23872cU, 0xbf204a7cbf215eb7U, 0xbf1e2207bf1f3641U,
  0xbf1bf991bf1d0dccU, 0xbf19d11cbf1ae557U, 0xbf177a0dbf18bce2U, 0xbf158032bf16946cU,
  0xbf1357bcbf146bf7U, 0xbf112f47bf124382U, 0xbf0f06d2bf101b0dU, 0xbf0cde5dbf0df297U,
  0xbf0ab5e7bf0b5d5cU, 0xbf088d72bf09a1adU, 0xbf0664fdbf077938U, 0xbf043c88bf04dff3U,
  0xbf021413bf03284dU, 0xbeff1e64bf00ffd8U, 0xbefa8777befd8aa8U, 0xbef65b90bef95ddbU,
  0xbef3ba02bef50cf0U, 0xbeee9391bef0bc06U, 0xbeea42a6beec6b1bU, 0xbee5f1bcbee76000U,
  0xbee1a0d1bee3c946U, 0xbedcf692bee01525U, 0xbed8fefcbedbb122U, 0xbed54930bed6d687U,
  0xbecfc4c7bed2859cU, 0xbecc3e44bece34b2U, 0xbec7bb52bec9d14dU, 0xbec36a68bec69aa9U,
  0xbebf197dbec1e6c7U, 0xbeba5829bebdaf11U, 0xbeb677a8beb82c14U, 0xbeb1b909beb3cd7fU,
  0xbead4a3cbeb0526aU, 0xbea99f13beabfee3U, 0xbea5157abea7c582U, 0xbea19a52bea33532U,
  0xbe9ccd45be9ee05fU, 0xbe98413fbe9aab5eU, 0xbe93f628be963371U, 0xbe8f4f91be91e4f0U,
  0xbe8b686cbe8d4e1eU, 0xbe86d805be88db11U, 0xbe81d427be84a54fU, 0xbe7c7738be804ecaU,
  0xbe73c0e6be769e00U, 0xbe6b2878be6ec3d3U, 0xbe61af90be66bccdU, 0xbe59e0febe5f8989U,
  0xbe52aa23be55b71dU, 0xbe48a6dcbe4dae0eU, 0xbe419698be4467ebU, 0xbe3894c0be3d26a6U,
  0xbe2db902be328476U, 0xbe259e9dbe2984b2U, 0xbe1f0042be22b547U, 0xbe15de65be19d8a7U,
  0xbe0ac9c8be1194dbU, 0xbe034f23be06fe6dU, 0xbdf67940bdfea9c2U, 0xbde38a50bded1961U,
  0xbdd22573bdda66c6U, 0xbdc13b71bdc99ba6U, 0xbdafd61dbdb84d8fU, 0xbd9cacc7bda70905U,
  0xbd8baa69bd9378f3U, 0xbd7901a4bd845733U, 0xbd575fd8bd682b9eU, 0xbd3529ebbd464460U,
  0xbd130431bd24261bU, 0xbce293c2bd0249d6U, 0xbc9dfdcabcc083a8U, 0xbc2fff0fbc75eb52U,
  0xbb1d136ebbd7d8acU, 0x3bc636b73af7514aU, 0x3c6c392a3c272e66U, 0x3cbb2a713c98b9d6U,
  0x3d008b643cde9853U, 0x3d234d4a3d11e6e1U, 0x3d44fb1a3d3450f4U, 0x3d64c85c3d54f415U,
  0x3d8481b93d7703c2U, 0x3d955d853d8d2469U, 0x3da5d2523d9d821bU, 0x3db7c4543dae83c5U,
  0x3dc937df3dc08302U, 0x3ddaddd23dd1f5e6U, 0x3deb49233de35da7U, 0x3dfcde513df370dbU,
  0x3e07edf23e02de3dU, 0x3e1037b53e0c1b41U, 0x3e17e50f3e1439b5U, 0x3e21897f3e1c955eU,
  0x3e29c3023e25e4a9U, 0x3e31bed03e2d8852U, 0x3e3b406a3e374a3fU, 0x3e43d9373e3fd133U,
  0x3e4db72d3e4a9aeaU, 0x3e559b833e517529U, 0x3e5ef3c43e598049U, 0x3e66754a3e620315U,
  0x3e6f168f3e6c3638U, 0x3e77f2c03e73a1d6U, 0x3e7f6efe3e7c43abU, 0x3e845b0e3e82ec0eU,
  0x3e8999663e880c55U, 0x3e8d3d0a3e8b5887U, 0x3e918df53e8e67b7U, 0x3e95dedf3e93b66aU,
  0x3e9a2fca3e975af9U, 0x3e9e80b43e9c583fU, 0x3ea2d19f3ea0a929U, 0x3ea722893ea4fa14U,
  0x3eab73743ea94afeU, 0x3eafc45e3ead9be9U, 0x3eb384b53eb1ecd3U, 0x3eb866333eb63dbeU,
  0x3ebcb71e3eba8ea8U, 0x3ec108083ebedf93U, 0x3ec558f33ec3307dU, 0x3ec9a9dd3ec78168U,
  0xc0aca5959ea39aabU, 0x949ea8b0a4b2a8aaU, 0xa2a29287a29eb1b0U, 0xa9af91aaa69eb6adU,
  0x979da683af9b9b9fU, 0xac8ca3a19fa2a9a1U, 0xb1a7a17e98a19f98U, 0xa0a49ca2ababa5a3U,
  0xb0948f989f9d9fa6U, 0xa692af9eaaa0ad99U, 0x96b092a09ca99d9cU, 0xa094adaca4a5b6b2U,
  0xb0a58f9c949dabafU, 0x9f8ca0afa4b0baa7U, 0xa0a6ab9fa19ea4abU, 0xa292b5a6ababaa9fU,
  0xb0a2a1a5a8a6aaadU, 0x9faba3b197b0b3a8U, 0x9f9a9faba2ab9fadU, 0xaa9f999bad9fa5b1U,
  0x9aa08fa5acaca79dU, 0xaeb1b0a8999ba9b0U, 0x9cacaab0a6acad8eU, 0xb399a39596ad9ba5U,
  0xa294a7a3a5a6a7afU, 0xa395a495b29baaaeU, 0xb2a892adaca99a98U, 0x9baea4a8a8a2a898U,
  0xaa998f98abaeafa6U, 0xb29eadacb19ea4a9U, 0xa79ca497a29aa8a2U, 0x9baa98a4b2a8b2adU,
  0xa6959f99a4959f93U, 0xa09fb29c999bb7a4U, 0xaba0a4a4ae99a3a8U, 0xb3ab9995a1b1af9fU,
  0xb3a8919eabb2aeaeU, 0xac9bb5979597a29cU, 0xb39eaba99eadaba9U, 0xb797ab94a1aebca5U,
  0xb89895b09a9ba598U, 0x9bafa49aa1b0a3a6U, 0xa39dada6b0a296a8U, 0x9caca3a29aa4c1b5U,
  0xa09d97aeac9b9ba8U, 0xa797a99ea9aaa8b6U, 0xa9aaaa9e9db19c96U, 0xb79a9f94aaafacb0U,
  0xa39c94a6ad9caca9U, 0xa2a3aab2b1a6ac9cU, 0xb5a5a39994adae9dU, 0xb194b3a999a9aca5U,
  0xa8a5ada1a9afac95U, 0x9fadabba97a3b8aeU, 0xa0989cb1b4adaea4U, 0xa0a8b6a7a5a1ab9aU,
  0xb0ac94b0a09fb3a4U, 0xaeb0b3a6a6aaac99U, 0xaeaca69c99a1aab4U, 0xb4b19c9ea2b1afa6U,
  0xa69b989f9798a39aU, 0xb6afa5a1b0a0b8aaU, 0xb49999b3aaa3b1aeU, 0xaba69fa19eab95a0U,
  0xaf9a939b94aca99cU, 0xae979f9fb0a69ca9U, 0xb298979ea8a8aba7U, 0xa5a09ba3aaaaa4a5U,
  0xa8a69da7aaaca699U, 0xa0a1b6ada89ea0a1U, 0xa5a09da8abb197b4U, 0xb6aeacadad95b5a5U,
  0xa4aca9b1999fa2a3U, 0xb0adaaada6a8a2a6U, 0xa2a5a2acb2abaeafU, 0xb5b1a5a49da5b5aaU,
  0xae95a29da8a9a0a9U, 0xadabb5a39ca6a6a5U, 0x9ca5ab9aa1a49ea7U, 0xb1b19aa2aa9c9d9eU,
  0xa8a3a7a8a8a3afa3U, 0xa2aea99a96a395a5U, 0xa9a2a4a39897b0b4U, 0xa5afa6a8a0a9a0a7U,
  0xa29796b5ab9ea5a7U, 0x9c9ca0a3aa9faba9U, 0xaba39c9fa7a398a8U, 0x9ba1a7b1aa95b1a3U,
  0xb899a8aaa09eb398U, 0xb2989b8da4adab9fU, 0xae96a0949da3a69eU, 0xa39da998ae9096a9U,
  0xa097aaa0a7a6ada7U, 0xac9db0a99391a39cU, 0xb396acada5a99b93U, 0xac99b49e98a9b697U,
  0x9f9bb0af9fadab9bU, 0xad9695b69b9ac8acU, 0x9ca79ba5aaacab9aU, 0xb1ae9bb19c9ba998U,
  0xa8ac95afa2ac9f8cU, 0x9aa3a1aba799a99cU, 0xa6a1a7b5a2adaaaeU, 0xa1ad90a3ac99a298U,
  0xac96a5b1a1a7b098U, 0xa4a9abb4a99ca6a6U, 0x8dada4a792a8a8aeU, 0xa0949db7abacb2a9U,
  0x9f9a98aba3a0afa9U, 0x9191b1a9ada9a78eU, 0xc59b9eaca79eb1b7U, 0xab9aa3a1aca3b9a4U,
  0xb6a8a1a9989eafa1U, 0x959fa6b4a3acc0a0U, 0xbaab92949bada796U, 0x9a999b9fa2a888a7U,
  0xafa89faba0aeaa93U, 0x979eac9aa9a2aba9U, 0xc99aaeb19495a0adU, 0x92969c9ea9a3b6abU,
  0xbc9aa3ad959ca8b9U, 0xb892a7b6b4a1b9a5U, 0xb4af96ae9d9da7b9U, 0x9aaca9a2b2ad899aU,
  0xa9949ca7939ea3c6U, 0x8f9bb4a89fa49fa4U, 0xbc9b97a99bafa7beU, 0x949c98a6979fc8b5U,
  0xb5afa598959da9a5U, 0xa5ad979eb699bebbU, 0xbb9994a6909c9ab6U, 0xa09f96b5a5b4bda5U,
  0x9e9ca595a09ca29eU, 0xb7aea19f9da4b7beU, 0xbe9e99a9aa9ea9c7U, 0xa4a2afab9ea1b9a9U,
  0x9e9f9caea2ada898U, 0xaf9ea29a9cac98a7U, 0xa994adac9e9898baU, 0x9391a29bb0b6adacU,
  0xaba5a99b94a6a5acU, 0xa285afa7b8a2b8a3U, 0xaf9c909b91acb0a8U, 0xa79aa3aba6a6ccb4U,
  0xb99f9eac96a7aac0U, 0xb88dbeb5acaebfb1U, 0x8cb1929f9eaa97b0U, 0xb899adb3a8a2b6aeU,
  0xa693a89a9d94aea3U, 0x9fa2a09a9ba8a1a3U, 0xaca8aeb0a7aeafaeU, 0xaea9a4a2afb1a9aeU,
  0xaeab979197a498c1U, 0x9d9b9ea1a1a6a9aeU, 0xa195a39da0a0a1b0U, 0xa486b49db09bbeb3U,
  0xacac928e9fabadc2U, 0xa886a6a9b1adaca4U, 0xb8b6a59497b097a4U, 0xa999afa7b7b1afb6U,
  0xb8ab92a1939998d3U, 0xa189a79fa9aeb5b8U, 0xa3a8ab9995a4b2bbU, 0xb58da9b7a3aaa4b4U,
  0xad96a5ac989ba7c5U, 0xc0a3b8b2b7aca7a2U, 0xbc969fa0ab9dada4U, 0x96a3a8a9aca8a7b6U,
  0xa0a1ada3a896b2bdU, 0xae8ebbb6aeadb5b3U, 0xb899a4959f959da6U, 0xc08fa79ca3aea8a3U,
  0x9dabafaa90aaa3ceU, 0xb99faab8a4a18c94U, 0xafa8969ea7a6b0a7U, 0xa186aa9db59ba8b7U,
  0x9aa5a892a8aa9896U, 0x968ba0b69db08db0U, 0x9faeaa9ca2a4a4b9U, 0x9991a2a5a6a9b5a4U,
  0xc0adaca3adaaa0b8U, 0x9ea89698a79d9d9cU, 0xa7a2a79dabb1a6c1U, 0x9db288a99fa5bdaaU,
  0xaf97a08d9ab0a696U, 0xa195aba79b9aab9fU, 0x9fac9699a99eb4a6U, 0xaf97b1adb2b69d9bU,
  0x99aca786aea2b2a2U, 0xa8a49b9aa2b2ada7U, 0xae9f93a4a8b09ab3U, 0xa3a3a4a09ca199a9U,
  0xb0aaae94a3a4989dU, 0xb598b39da098abaeU, 0xa3a7aba7afa3a1afU, 0xa2aaa1aba5a39d98U,
  0x9baba09eb2a1b0a3U, 0xb3aeb1a99aa0a098U, 0xa49f969faf97a99fU, 0xa9ab9fb2a49abca0U,
  0xb3aba09da0b0a7b2U, 0x9bb1adb597a79ea1U, 0xa6aea0a7a29aafa8U, 0xb1b39da0b1a4b1a1U,
  0x9caeab95b1a2a5a6U, 0xa99eb1a9a4a6a8b2U, 0xadb29a9a989da1a4U, 0xa1a9a7a896ada5acU,
  0xa99998a997a9b1a8U, 0xa199ad9cb4a1aeb0U, 0x98a0b0a8b0b4aeaeU, 0xa4aca2a79ab0b2a7U,
  0xb09eafa1999fa99fU, 0xa7a89fa7b3a2aeaaU, 0xa6ada6a4ab97a69fU, 0xb7a5a9a1a0b5b9a6U,
  0xb1a7b0af99a79a98U, 0xb4989fa8b1b0a0a4U, 0xaf9ea8a29ca0b5b0U, 0x9daaae9a979fb1a8U,
  0xa197a69ba69aa6a2U, 0xb29e9da998a69ea5U, 0xa1a8a6aba2b298b7U, 0x9facb1a6aba3b3a8U,
  0xaba2ada8a79ea39fU, 0xa8aeac97a8b0a4adU, 0xb2a9b0acaa9da8acU, 0xb6b3a899a49ab0b0U,
  0x9997a19b9fa6a7a3U, 0xa0b09ab2a49bb0afU, 0x9eaeb19fb0b0989fU, 0xaaaf9cb0afb2a79bU,
  0x99979cb3a5b3a198U, 0xb69cb4a59ba5b8a4U, 0xb09f9cb7a8b2a099U, 0xb09ca8a39aa4b0a7U,
  0xb4a6afafa3a2a9afU, 0xb7b49e9dabb4b09eU, 0x9ca597a0a9ab9da5U, 0xb298a2a69da8ad9eU,
  0xa49bb0a6a2a1aa9cU, 0xa8b1aab7b397a4afU, 0x9ca7afb09fa1b0b1U, 0xada4ad98b3b496afU,
  0xb69ca29fb1a8a8b0U, 0x9d99aaa996aca49aU, 0xa3b295a1a797b0a6U, 0xaeb6a5a99f9fa9a5U,
  0xa9a4a29ca9a799aeU, 0xb5b3a7b6a8a598b4U, 0x9baaa7a8a1a3a3a3U, 0xb7ada09aad9ba399U,
  0xaa9e97b09d96a49eU, 0xa3a9a69ca8b29c9bU, 0xb396a8b0a9aeb09cU, 0x9faca6b7a79ab2a7U,
  0xa0a094b4b1b49eabU, 0xaeb0b2a6afb29fb2U, 0x9f9594a49ea9b1a9U, 0x9caaa79ba2b2b3a9U,
  0xa4ac95b6aea49899U, 0xa0b4b699a8aaa99fU, 0xb8a2a9b69f9dafb2U, 0x9aa8b199b1ae96b0U,
  0xb49899a1a89da59bU, 0x9fb9a39caca0b4aaU, 0x9ea1b0a59fa9a19bU, 0xb1b0ae9ea8b2aaa4U,
  0xb7a6aeaaaca69f98U, 0x9bb0ae9599adaa9dU, 0xa1a6aeb2a49aa5a7U, 0xa6a89aa5aca1a499U,
  0x9fa4adb1959ca49aU, 0xafb0b5a69ead94a0U, 0xa2a1a3a5a6a3aa92U, 0xb7a5a2b59698a294U,
  0x9da09ea19cabb498U, 0xb1a7b0b2aaafb4abU, 0xb198b29da798a39cU, 0xb0b1b3a0a39eada3U,
  0x93aba9b0ae9ba6a8U, 0xa6a39db5aaaca693U, 0xa0abafa595aaa7b4U, 0xb2ac9c9bb3a4afafU,
  0x8fb1adb198b39ca6U, 0xa7a2a1aea3a49fa8U, 0x9c93a993a3ae9c9fU, 0x98a8aba5b2b1c0afU,
  0xa5a398ab95b1a7abU, 0xae9aa7b09da9a69aU, 0xc1ada89ea0a1a0b4U, 0xacac9e9db1a8a4abU,
  0xacaf98a698a0abb0U, 0x9798b1a2a99fc899U, 0xb898ad9493999fadU, 0x999d97b0aab1939fU,
  0x9199a0a992a2aca5U, 0x9d9ea498a7ac96abU, 0xc69daab7a2a49ca0U, 0x9d9daca1b09ab9a0U,
  0xb199a5b0a6afb3bcU, 0xa4b1a6aaaaa0c5a8U, 0xa6a5b09ea8a9b5abU, 0xa1a5b1a7a0a58aaaU,
  0xb09aaba296a899adU, 0xa997ada59fa3b5a2U, 0xa7a3b2b0a79aa9b2U, 0x9ea398a4ab98aea4U,
  0xaf98ad9f9ab09fa1U, 0xa69aafaea398b8acU, 0x9cb396b294a89cacU, 0x9db5a6a0b49cbca6U,
  0x9f9ba6a9ab9ca49eU, 0xb3a1a7a4b09fb9b5U, 0xb4a5adb0aea59ab6U, 0xb7a3a19d9aaa9b8fU,
  0xb19799a19d9fad9fU, 0xadabb09db29c969aU, 0xa2aaa6b2a3adb2a4U, 0x9b97ba9f9a989d99U,
  0xa1aaa2a5ac96a5a6U, 0xab9e9ab3a9a7a6acU, 0xae9cb19c979c9db2U, 0xa590aca6b1a8b4a2U,
  0x9ca89ea5909ea1afU, 0xbb9dbdb59ea1c1a5U, 0x919a93a5a6989dbdU, 0xa19ba19ea4a2a99aU,
  0xa7acaba0a3a4ada9U, 0xa8ad9fa09a968595U, 0xb9acaca498a1afb4U, 0xad9fafa19ba1a1afU,
  0xa99faba0a59b9cb2U, 0xa697a9ac9a99ada4U, 0xb09a9a9aa8aa9ca1U, 0xb38eb4ab9bb1bba6U,
  0xa999a4a7939ba5beU, 0x9caaa3ac9f9cb6a5U, 0xacacadaaa096a7a2U, 0x93a5ada7a09cad94U,
  0xa3a8ab95a1a89bbfU, 0x978eaaa9b2a5bca2U, 0x999d99999baaaea2U, 0xbf89bb9c9eada9b0U,
  0xb2b0acb29ab0a8b2U, 0xb394ad9db1a8ada7U, 0xa2aa93ae9d9fa592U, 0x9ba99c9aa3b4adafU,
  0xa4a697ac94a2b0b3U, 0xa394ad98a6a6b5aeU, 0xa6b2a4a0a79aa0a1U, 0xb0a2b599a8a29d9bU,
  0xad9da69e9ba598baU, 0xa591b2a29ea6a28bU, 0xb3a89e9d9796acb6U, 0x9da9a8a6a4a9b4acU,
  0x8799a4a29eb09f94U, 0xa1a4969ca99e9ba5U, 0xa796a6a89da5acb9U, 0x9c8fafa2a0ada899U,
  0x969199ab9c9594a7U, 0x9b98a09191a9a993U, 0x919bae929ca393a7U, 0xa6aaa3a1a5929ea7U,
  0x919da19692a7ad92U, 0xa4ad9a98aaada4aaU, 0xa2a89fa5a1adaa9bU, 0xa69495a191aaada2U,
  0xa59e93929dac9190U, 0xa29095ab95a8a1aaU, 0x989999a7969497a3U, 0x9e9a979caaaa9e9eU,
  0x9ba19c969f95aba9U, 0x9ba89ead95979c98U, 0x9696a79695a19fa2U, 0x93a7a4a7a69b969eU,
  0x9794a2a7a8989894U, 0xaba8a79aa7ac93a5U, 0x9fa999afa99a94adU, 0xae9da7a6a9a6ab95U,
  0xa0a0999fae969aaaU, 0xa79194a49b9d9d92U, 0xaaa7a7a492a9a1aaU, 0xa3a79d91a494a896U,
  0xa0a795aaa79da5a7U, 0x9dac9d91a49da3a8U, 0xa1a8ad98a9919e9cU, 0x91a49990a79ba9a9U,
  0x96adaf979a9d9e9fU, 0xa09c9099a3959c91U, 0xa699a9959c93a4a2U, 0xaaada9ae92a7a2a2U,
  0x99939a949eaa929eU, 0x99969fa3aa939b9dU, 0xa6979c969ea8a39eU, 0xaf9794aaaca4a5a3U,
  0x9a9da19ba59c9b99U, 0x99ac9f9eaaa9a4a6U, 0xafa69b9aa4a69197U, 0xa9a0a7a491a19babU,
  0xaeaa979aa9aea5a7U, 0xa2989e9f9892a3aaU, 0xa0a5a59a9e9ea8aaU, 0x9692a1aba898aaa9U,
  0xa59e9ba1ab9c9fa9U, 0xa5aba995a39eaba8U, 0x9d969998ada2aca7U, 0x9293a39dad979c9cU,
  0xaa92a1ac9aae99abU, 0xa09aa9a39aad9d94U, 0x9aad999aa193a1a4U, 0x91a2ad9c97a0a793U,
  0x9c9c97a4aaa094a8U, 0x9daaa6939991a6a1U, 0xa2a7ab989898aaacU, 0x9eab9c9d94a89eafU,
  0xaaa594ab929f9e98U, 0x90a5a0a5a8a397aeU, 0x9ca79fa4a199a592U, 0x989da9a09f9f9f93U,
  0xada39e92a39c9f93U, 0xa697a993ab91aa91U, 0xaa999eaca799a99cU, 0x97abaa9bada2a7a0U,
  0xa195aa96aaa99b99U, 0xa796939399a79c98U, 0xaeab95ab9c99a4abU, 0xa9a89da59f9a9d9fU,
  0x99a8ab96a3959aafU, 0xa0ac949e9a9aa8acU, 0xa7a9aca195a6a3a1U, 0x91a99c9da19e9493U,
  0x9495aea098a79996U, 0x9ba7979b92929a96U, 0x969a95aa9fadaeacU, 0xae9893a29fa594abU,
  0x9d9b9fa59f95ab9cU, 0x9e9b979dada3a69cU, 0x90a99492a49e9eaaU, 0x96aea8a09eadaeabU,
  0xa1aaacad9ca29ca2U, 0xa0939ba6989da895U, 0x96a1ad9faea597a6U, 0xa996a8aba0aca29fU,
  0xa9abada399a2aca8U, 0x93aeaaa0a0ad979aU, 0x94a8ac929c93929dU, 0x9da6ada1959d91a9U,
  0xa5ab90929ba19ba2U, 0xaeaa9bae9f9d9aadU, 0x929892a8ac93a993U, 0x949f9ba09795ada8U,
  0x9aa597939e97a0aeU, 0x9c9aa8a592aba0a8U, 0xa398ae9b96a1afa4U, 0x98959994a6969ea7U,
  0xa8acaa9f99aa93acU, 0xa09d9ca495979798U, 0xaea797a3a59ba294U, 0x9baa9ca59d9e9c93U,
  0x9faf91a3a8a99995U, 0xa3929aa7ad94919cU, 0xa7a99fa9aea19d9fU, 0x9dac9c90aca9aba5U,
  0xa09da39697aa9da6U, 0x97ababa59baa92adU, 0x999da29e969da29bU, 0xa8a9a2a4aba4a8a4U,
  0x92ad9ca9a5a6acadU, 0xa89aa2a19c9f96a7U, 0xa1afa29fad9398a9U, 0x93af9fa1a59498a5U,
  0x959694a8a3a7aba2U, 0xa0aaa1a6a3a9979fU, 0xa5989dadac90a39cU, 0x96a1a49a9fa093a8U,
  0xa9aaac9aa6ad9da1U, 0xae94a7ada89da997U, 0x9f93a09fa996a395U, 0xa8a99fa89dab99a9U,
  0xa0a3969da29f9aaeU, 0x9795ab929990a9abU, 0xadab93a5acaf9caeU, 0x97a99da09e9ea2a2U,
  0xa09e9497a4a89394U, 0xa7ac919393919dafU, 0x9eababab939f9facU, 0xa79e92a59d969896U,
  0xa6a594a992a7aeacU, 0x979ea3a098a497abU, 0xa8a690a0a6aaa194U, 0xa897a2ac96a79895U,
  0xb1aa94a59398a292U, 0xab98ad9eae93a59dU, 0x9ea8a7ab97a7a69eU, 0xa5959f97aaa29893U,
  0xad969598ad9eaaa9U, 0x9a9c96a4a6ada8a3U, 0xaa9e9997ada0afa9U, 0x9893a7aba19fa4a0U,
  0x9a949aa69393acaaU, 0x969592999f96a592U, 0x9aada1aca198a0a6U, 0x9e9cada7aaa891a6U,
  0x9daba0a793a492aeU, 0xa5aea49c9b9ea0a3U, 0xa79e929b9a96a29cU, 0x96ab94ac929caaa1U,
  0xa79e9d95a898a9a0U, 0xaea79d929d9c9ea4U, 0xa49dab9ba6ab909bU, 0x929b92aaa2a9ababU,
  0x98aca0acaca0aea4U, 0xa59b9999959ba5adU, 0x9f9ea8979ca2a992U, 0x9ba0aa999c9b919fU,
  0xa89d98a7a89894abU, 0xa093a4a3a69798a4U, 0xb196949fa39e939eU, 0xad9c96a8ac92ae9bU,
  0x9aa29995a29a94a6U, 0x9ca193a391aaa597U, 0x9ca99c9496a1ac9cU, 0x9dada1ab96949591U,
  0x98a898a59eac92a9U, 0x9bada5aa9dada3acU, 0xad939396979ea799U, 0x9894a8969f9ba49cU,
  0x9c9aa1949897a2a9U, 0xa1929da0a299a8a5U, 0x97a59d929b9991a5U, 0xa995af9e96ad9aa4U,
  0x9f9f9aa694a69dafU, 0xab9da89f9b9694a7U, 0x9c9aa79b9595afa2U, 0x95a2a5a395a891a9U,
  0x95a19e99a7929b97U, 0xa7a2a495a893a0aaU, 0x99999e9d9599a894U, 0x9e92ab9399a892adU,
  0x919aa08fab9a9e76U, 0xa6c1a8a8a69a95a3U, 0xb0a9b6b09cad9cb0U, 0x9996a09aa493569bU,
  0x84a59da3a498a3aaU, 0x99afa88288849784U, 0x90959bb0939f9f95U, 0xadb29f818790998dU,
  0x95a5a79290949e8fU, 0x95ad9991a19c839bU, 0x9ca7a8aeab94a2a2U, 0x9a9b90898e869e95U,
  0x93adafb2ae9caa98U, 0xaaab9b9fa99b968bU, 0x9da79eb096a7949fU, 0x9cada19f9c9db48dU,
  0xa1a5ab93ada3948dU, 0xac9f909b9195a296U, 0x8c95a0c0ac94a6a8U, 0xa1a9ac859c8ea281U,
  0x969aada5929697afU, 0xae9898939b99a891U, 0xada5a9c3a6ac9a92U, 0xa099a9919f8eb08eU,
  0x9db0a29c98b1a794U, 0xa6a09276a492a194U, 0xa5a8a98d9d94aaa1U, 0x95949e97a58fb693U,
  0x8e9ba78d9caca99eU, 0x9194a7989f9eb88cU, 0x8da6af9da9a29f94U, 0xa993ab999698b99fU,
  0xa1949bb69b96abafU, 0xa691929c8e95b193U, 0x9facaea19197a890U, 0xa18ea38ea586bf96U,
  0xa09ca8acae949c90U, 0xa7aaa7999995aa9fU, 0x95aaacbdb19693afU, 0xa5a1adaf95a1a199U,
  0x95a1b1ada0a5a29bU, 0x9e9aa08b9a9b8f9bU, 0x8f9eafaaa4a6a59eU, 0xae9dad9e95939c90U,
  0x8f95b097aea196a6U, 0x9d8aa7b69c90ba90U, 0x9caba1a2989ba7a4U, 0xa39797a49a8aa28aU,
  0x8da697aaa8ac9793U, 0xa48f9ca69fa0af99U, 0xa79db088b19f95abU, 0xa88494a38d989882U,
  0x98a0b0989e999ea4U, 0xa18bab9da49ea88bU, 0x95a69e70a4a9ab94U, 0x9b9e938d9f9cc099U,
  0x9fa6a888a6a3ab99U, 0xa98aa8998e88a086U, 0x9ca6a7b996a9aea1U, 0x9b9091a5999fa1a0U,
  0x9aab9ac5ac9ba196U, 0x94a59fa49194c086U, 0x8d9aa39ca9b0939fU, 0xaba89786a997c796U,
  0xa4a99ea0a8aaa19bU, 0x978a9eaf9988b286U, 0x8faca873a09a959aU, 0x998ea394a38fab90U,
  0x9096ad7e9a9aaa9dU, 0xa692aa999888a8a1U, 0xa793ad9a9fab9b95U, 0x9888aca78b90a588U,
  0x9faaaf9e9d9faf9fU, 0xa2ada3a9a1899b93U, 0x889bb694a3aa98adU, 0xa58e9c90a9a0baa0U,
  0x94a99f8d9e9b9c8fU, 0xa397a4a5a5a0c99dU, 0x9e99ad77a997a59dU, 0x9b999ab0a0a0ac87U,
  0xa29da49eaa9f9da0U, 0x9d819cba9188a69eU, 0xa4989993929d9998U, 0x948f8f819c8ab79fU,
  0x9a9d9f759c9f9298U, 0xa597aca58892a38dU, 0xa3a29b8fa8af939fU, 0xa3a1a385a2949aa3U,
  0x969da675969f9b94U, 0xab83a2769c96968aU, 0x7ea19a8598a4a793U, 0x949096838e8d9a78U,
  0x7da49ea893979a93U, 0xa6a497a78e7c9c70U, 0x83b09887a1aaa779U, 0x9a8bad909d889c8eU,
  0x9aa2aaa79c9a9c8fU, 0x95929aa39485a39cU, 0x8aa4b08ea2b195afU, 0xa397a4978e8eb499U,
  0x8faba7a3aba4a67dU, 0x91958da79e8d8591U, 0xa495a695b0af9f91U, 0x9f9da4a69c989ea1U,
  0x9494aea9af979689U, 0xae969fa0a5a3c5a0U, 0x899fada29aae9b93U, 0x91b5a2acaa9fbca5U,
  0x9a98a08fb3a6a776U, 0x9296a0afa783819eU, 0x9aa4af9faaa9af82U, 0xa2a69ea5a4a26e94U,
  0x91a0ac87a9b0a1a8U, 0x90a39994a38c979bU, 0x9aa1a88daca5988eU, 0x87ab8da29aa28ca0U,
  0x9bafad9ab6a5a0a0U, 0x94d1a1a29893848cU, 0xa4a09aaeac9e9281U, 0x90c5a390aa8cad91U,
  0x7c9d979ea0ae9e8dU, 0x97a4988e8fa7bf9dU, 0x85a79995a79ca79aU, 0x8b9c94a187a5a69cU,
  0x929c9996a3ad9a94U, 0x9fb4c49f8eabd896U, 0xa594a98da5a5ac8bU, 0xa2b0a19a9a977ea5U,
  0x8da6b3979ca3ab76U, 0x8cb1aba09399ac9aU, 0x8a9aa4b2b5939488U, 0xaaa98ea5ae998b9eU,
  0x93a6ac87ac949888U, 0xabaea59ba0a98999U, 0xa4a89f92b59bac96U, 0x97b3a8aba2a59ca4U,
  0x9e98a0a3a9b09d94U, 0x9bb29a99a08a99a0U, 0x9e9baba1a2a0959bU, 0x94a59ca796a08396U,
  0x93a4a89397ad9d81U, 0xa2b6a1a49e95ac8dU, 0x859eb18e96afab87U, 0x99a5949396a2938cU,
  0x9d9a9fa2b3a5a68dU, 0xa1b595a79d8e8ba1U, 0x93afa99ea8ac95c8U, 0x969da4a39ca28e8fU,
  0xa1a8af849d97a7aaU, 0x92a38fa591a5929aU, 0x899b9ea29798a2a7U, 0xa9a79f8fa58d8395U,
  0x95a1b48ea8989d7cU, 0x8ebd9e9f9ca18996U, 0xa7a19e97b395a875U, 0x96b9a4a78e91a1a1U,
  0xa49aaea2afa9a99fU, 0x8aa9ad9e98a7998cU, 0x9bb0ac9fb19aaa9fU, 0x8bb4ae99a79dc190U,
  0x9e859c9096ae9da4U, 0x90a5b0a488a5928cU, 0xa3ada3aeb5ac9389U, 0x95a8aea1b2a4d292U,
  0x97ab9ea9b4b1aa88U, 0xd9c885a39a9a90a7U, 0xafa2b0a4a29b9481U, 0x9fd5a296a2a5909dU,
  0x8fabab94b1a29a98U, 0x9ca0a8998e9caca0U, 0x93abae97a3a794a4U, 0x97dfae959d959994U,
  0x9c8fb58fb29c9886U, 0x9fb38ea19b9e7e96U, 0x8f9ea2899eab967dU, 0xa7b6a8939994b6a2U,
  0x8ca6ab8ba4a1ae6cU, 0x97b3a992909b7c90U, 0x9ea6a68eb69aa08bU, 0xa4afa7aaa9919091U,
  0xc1b2aebba4ad9ec1U, 0xb4afb3799daf8b91U, 0xa7a0a5e28e989484U, 0xaba8d485998f8188U,
  0x8ca3a0df8e9ca0a8U, 0x8ebcc384899ea0a2U, 0x9dae98c081a69094U, 0x92c1b1849389ad9dU,
  0x8aa0a4bfa2ad91a1U, 0x95c09f78a0a19491U, 0x8aa8aab8a09d967dU, 0x93c69a8b998a91a6U,
  0x90aca1b08ea1ab99U, 0xa5b996809aa88890U, 0x8e9d9dbb8b9d9b9bU, 0x92b0a89d9d9da396U,
  0x90a69ac48ca9aca1U, 0x90bca08ca99b9e97U, 0x98ada8aba1b09b8aU, 0xa4bd91879a948995U,
  0x88a9a2a88794a997U, 0x8fba9388a499a6a4U, 0x86b2b5a38da3a0a7U, 0x9ea89f939e97aca0U,
  0x86a0aeba92999b8bU, 0x98ada79a9b948d9bU, 0x879fa4a88ba5aa93U, 0x8ec29c87a2a7bc9cU,
  0x8c9ea2a887a298a4U, 0x8fbc9a8094989995U, 0xa2a4aeb793ab9c96U, 0xa2b6ad93a49cb0a4U,
  0x8ab29ca49eb1a790U, 0xaaa5ae8e969e9ca3U, 0x97aaa9a389a5a69dU, 0x9abda399b0a89f9bU,
  0x909cafbd8ca6ad98U, 0xa5be9e8ea8a6cda1U, 0x9fada1b2a6a590a2U, 0x9fbda68fa7ab99a2U,
  0x85a59ca38f979392U, 0x9cb7a39ca694899eU, 0x9b9ab0a18fb0ac8aU, 0xa0c09988a0a98791U,
  0x97a5a0a39ca0a597U, 0xa3afae8eb1a49e8cU, 0x8ab0b4ab9c93a9a5U, 0x97af9e909ca1bca9U,
  0x94a0a7a19f9d918cU, 0x91a794a09a9ba199U, 0x96b399ae8aa2ac87U, 0xaab1a18f99a49d92U,
  0xa1a69c91919d999aU, 0x93a8ab98aba39da6U, 0x85b3b3a394aca288U, 0x94b19678a494b79fU,
  0x8da89da596a9a89bU, 0x94aa928aa0af9caaU, 0x98aeb1ad95b092a6U, 0x9f9fa7989fa5c291U,
  0x9bb0ac9a8e9aab9dU, 0x94b1a59595aa8c90U, 0x919aa9b2a3aea592U, 0x9da5a285b29db5a9U,
  0x9ca39bac9fae9baaU, 0xa0ae90a3aaa4b193U, 0x929db39a9a9ba6a8U, 0xa1a1a198a8989da0U,
  0xa1b39fa798a8a98cU, 0x90a69d8c969d9091U, 0x85b4aeae85af999dU, 0xa2a8a68eb1a79daaU,
  0x97b2ab9b8fa29c8bU, 0xaaa9968e959f9d98U, 0x859bb4a286a49497U, 0xa7a4ae8ea29b9da2U,
  0x99afb09c8ea29d96U, 0xa3aa9994a9aa9690U, 0x94acb1a39ba8a08eU, 0xa9aaa4969f94b29bU,
  0x969aaaa392ad9499U, 0xa5a1a295a6a8b28fU, 0x8ab29e948caea58cU, 0xa3a5a190b09ab79dU,
  0x8fab989587ac9aacU, 0xa0a29a83ab9cad9cU, 0x869dad9385aaa796U, 0x91b3948c9dad789bU,
  0x82a4a09183a597a0U, 0x9fb1a5a5949aaaa5U, 0x93a99eae9eada3b1U, 0xaab5a0b9a2a6aeabU,
  0xa3a3a8a698a0ac9aU, 0x9ca69f92a8aac1a9U, 0xa4a8b4aeb094a6b6U, 0xa9a49c959db286a4U,
  0x9d9eb3a6a6b09cacU, 0x92a9a19391d49d9fU, 0xb6a3b5b398ae92b0U, 0x98bfacb2a2d098b9U,
  0xb5a7a7b2a49fada3U, 0xa7b4a5a88cd192c1U, 0xa89db490a69a9884U, 0x8fb0ae8f87ccbcdeU,
  0xceb7a2a4a6a0a6c9U, 0x9eaf9e8899b9afd8U, 0xe0b9a8c09fa79abaU, 0xaaa39e8d8ab496b6U,
  0xcc9ca5aba2a192bcU, 0xb6bd9a8d93c0b0e0U, 0xc79fa3b3ada8a9a0U, 0x9cbda9929da9b1cfU,
  0xcdae9abca99ba7aaU, 0x9ab2988798b589c7U, 0xb999adcea7ab9ac3U, 0xbfb9a49794a3b6e1U,
  0xd8a3b0b8bba7aadeU, 0xbfaaafa692b1a5d4U, 0x97a89db39baea4cfU, 0xbfba9f90a0c0a1c5U,
  0xb7a7a9b79994abb3U, 0x90bd948e8eb18be2U, 0xbaa1a7ae97a19ebaU, 0x8bbeae8999afc8d7U,
  0xc6b5aecba1af9f81U, 0xc9b7afa392a2b6deU, 0xb09da3b0a2a6927cU, 0xa5be998398ba8ae1U,
  0xacb69dc8a9ada5c5U, 0x99aea89e91b989beU, 0xbe98a6c8b1939890U, 0xadae9c8b789fa2d4U,
  0xc6a6acc6b2ab9e7fU, 0xa2b488b2a2b68fb8U, 0xc9b6a4bbb29f9b7fU, 0x92cf95949ab7bae1U,
  0xc3baa9b6949792b8U, 0xadaca08cb2b4b2e1U, 0xa9b39fabb6aa93b4U, 0xa4c29e8a8dacb5c9U,
  0xa0aab4ac99a79e97U, 0xb6b69a8381b2a4d7U, 0xb9a89ec4afa9a99cU, 0xb8c19f878fb67dc7U,
  0xa5b5a4bfb0989a79U, 0x95b6a38b9ebb9fcbU, 0xe8b2b1c9a7aaa39aU, 0xa0b2bb8f9ca3a1e4U,
  0xc6a59ec7acadaca3U, 0xb4b6b49d96c5b7d2U, 0xae9da3aaa1a8aabaU, 0xaab6a5867db5a0d9U,
  0xbca1a2e4a4a8ae9dU, 0x9fb7a8919ab3aad7U, 0xaa9ba2c1b39e90abU, 0x9dc89aa09cb298c1U,
  0xbd9e9ccb9fa4ae77U, 0x9ab2a78aa0ab96c5U, 0xae90a3bab0a99baeU, 0x9fc8a78193b194bbU,
  0xcbadb6c6a0ab9a6cU, 0xa2bea8878cbab4c2U, 0xc0999fe09f9b9ca2U, 0xa2ce9b97a4bda1cdU,
  0xc4afadbba3a7a892U, 0x89caa29a96a3a7ceU, 0xb9afa4c6aaa198e1U, 0xacb7a79c8cb2a8cfU,
  0xc59ca1cfa5ae93a2U, 0x87bf889c8caa8eb9U, 0xb2a89fc698abacc3U, 0x8fc5ae8d9ea7a9c8U,
  0xb68fa5f5a394a38eU, 0xa1c0978993a6a6d6U, 0x9eaab0c89ba5aca8U, 0xb6c2a59985bca2deU,
  0xd9aba4e29b93a3c7U, 0xa9afad9da1a6a6d5U, 0xc7b5a7e0b3af9b7eU, 0xcac5a67e9cb998d2U,
  0xb6a39a90ababa49dU, 0x9d9b96a5af999caaU, 0xa5a4ab97acb3a4c6U, 0x9e9e93a1a8abc69aU,
  0xa69bac91a6aab399U, 0xa992a5b5a5a59aaaU, 0xa9a4a6899f98a3a9U, 0xa994a9a2b4a4aeadU,
  0xa8b2ab9d9cb1a6a5U, 0xae9a9ba899b0a9b5U, 0xb2a2969b9ca999abU, 0x9a8db0b2a0a19da8U,
  0xb0a798a59eb39da9U, 0xb29a98aaa4989db3U, 0xaea5a9a7b0afb0aeU, 0xb4a3ae9fa8ae9e98U,
  0xada39b9dadafb29dU, 0x9e9fabb29da5ada5U, 0xa2a2a1b0a3b3a2a1U, 0x9db1a8afb298a6b4U,
  0xa4ab9faca09c9ca6U, 0xb7aaaa9eb1a0a5a3U, 0xb0aaa19ca09ba8acU, 0x9db2b3a89dafaaa8U,
  0x9ba89e98aea0ae9dU, 0xa6a59e9197aeb8b3U, 0x98b29697a7a8a398U, 0x9ba29c9d97ad9e99U,
  0xb098a7b0a8b3a4acU, 0xaeb1a2a49da5ab9bU, 0xa2a29398afa39aa8U, 0xb09ea5aca7afa3b1U,
  0xb399a798afadb39aU, 0xaaa7b49e9eb2b29eU, 0xb5aba69e9cacb2a8U, 0xaeaea2a39ca5b7b4U,
  0x9d989fababaa98a9U, 0xaca99c93acb09caeU, 0xab9e91a6aaa2a4a2U, 0xa99caf9daaaab19eU,
  0x9ba292b4afa6afafU, 0xb398a5b199a0b7aaU, 0x9d9d99ada39d99aaU, 0xa5929c9cafb1afa9U,
  0xb5a59da19ab39799U, 0xa8ad9f9699a2b39eU, 0xa3ac91a39b9e9792U, 0xb6ad99a2b399b6a5U,
  0xa1af9ba9aaa3a49dU, 0xadb2af9a999c9eaaU, 0x9ea7969da599a8a0U, 0xa8a4aaafa3b2a0a6U,
  0xb1ac94afaba9b49cU, 0x9da7a1b597a3baa0U, 0xabb0a9a9ada39f9eU, 0xa4a9aeaba899aca6U,
  0xb29aa9a5aaac99adU, 0xa8a1ae98a7a8a29cU, 0x99a4a9a7a2a6a8abU, 0xb3a0a0a2adb1a4a4U,
  0xb2989daab2b097a5U, 0xadb2b1a398b1aaa9U, 0xa8a2a0b4a89cb2a6U, 0xa0b1a3aaacb3979bU,
  0x9b9ba9a0b2b2afa5U, 0xa1afa595a0a2b0a7U, 0xa19a9da3a49a9ca9U, 0xb09dab9aac9babafU,
  0x9da5a2b2a3abafb2U, 0x9dada4aeada8a4afU, 0xb7b2a5a0a1a19caaU, 0x9d9fa7ab9697b79eU,
  0x999ea8aab29eada2U, 0xb29fa59a9aabb6abU, 0x9c9a91aea3a59d97U, 0xadafb2a0b1a89f9aU,
  0x9ba19ea4a098b4a9U, 0x9aa7afb098a1afa2U, 0x9db1a2a698b0a898U, 0xac9eb0ab9cb4a69fU,
  0xb395aca19faa9baeU, 0xa39ba39b97a9b0abU, 0xb79da5a79c9db098U, 0x9a9fa7a0a89ea5a5U,
  0xb19895ba97a5aaabU, 0xa5a09da497a2a1a4U, 0xa1a1af9c999ba5afU, 0xa4a0b3a796a9b9a2U,
  0xb8a3a5b0a09ea3b2U, 0xafa8b58c9da7aeacU, 0xa49e9696959899a4U, 0xb398b590a69aa9afU,
  0xa7a297a4ada5a69fU, 0xaab1afb39ca296a0U, 0x9fa3b1ad95b39e91U, 0xa1b0a3989ea1baa9U,
  0x98aba89ca19cb1a4U, 0xb7a2aea5aba9c9a1U, 0xa7959aac90a3a1a7U, 0xa4aea0aeb29ba49fU,
  0x90a3a6a8a8b29ea0U, 0xb29d97adab98b2a9U, 0xa1a5abb298b2a7afU, 0xa7b098aca4aab1abU,
  0x8ea0ada59c9fb5adU, 0x9db1a4a3a7b1a397U, 0x8f9ea5aa90a3a2a2U, 0x97b3aaabaeaab5a7U,
  0xadac99b2a79898abU, 0xa4af9e9b9db1aaa7U, 0xb6ab98aa90a6b2a7U, 0xa2b09aa5a29da5afU,
  0xb898b2a6a9b3acb4U, 0xa7aaada5b3b0cda2U, 0xb1a6ad949da699b0U, 0xa9a8a4a5b0a187abU,
  0x9fb2a09b9c9ea9a5U, 0x96ae9d9aa0a3a29cU, 0xb7a097a690a5a9aeU, 0xa9a2ad999db2c4acU,
  0xb4b3afaf99ab99bbU, 0xb5a5b6a49cb2c6b1U, 0xb6ae99b0a79aaba8U, 0x9a949ca3a99f9dabU,
  0xa3a398a99b9fb3b1U, 0xa099a89aa5ad9c9dU, 0xb0a1ab9d9fb3a4bfU, 0x959bb3a697b1b3b0U,
  0xb4aaa19c95a8ada0U, 0xb09cb1a4a0acb4a3U, 0xa8989fad959997bbU, 0x99ada3a2a9b0acaaU,
  0xaaa7a1a796a6a5a2U, 0xb0b0a997b1abb6b2U, 0xa7a2a4b4a3a9a4b3U, 0xb88ead9fa5a3aaaaU,
  0xa0aea3a0aea3b3a1U, 0xafb293a3aea3a4adU, 0xaaa29aa895a9a0a3U, 0x9da2a099afa69fa1U,
  0xa598ada298af9ea2U, 0xa3a7b49eb0a7b49dU, 0xb597a3a09d9aa8acU, 0xa0a4a4a1a59cb9a9U,
  0x9f96a59baca09bbdU, 0xbba3bdadac9ab19dU, 0x9a9ba1a391a9aca9U, 0xa3a2b2a09ea4a8a0U,
  0x9fb09aa1a4a0a19bU, 0x9bacac9b96a19398U, 0xaea5a6b09db1a8abU, 0xb5aba6a8b3a8a1a5U,
  0xa4a7a6a9a0abb4b2U, 0xac9e9cab9fb1bab3U, 0xb19faca0a398b0a2U, 0xb397b0a69cabacadU,
  0x9aa4a7a6a1a3b1afU, 0xaea4b7b6a5a9aaa9U, 0xb4aca6a292a7a1acU, 0x9591a0b2adb2b598U,
  0x9da1a2949aacb2c3U, 0xa98fb89cacb3a6a5U, 0x99a5969c9ca19bb7U, 0xb1a0b7aa99a8a8a2U,
  0xa796afa89c9e9ab2U, 0xc29eaaa7b1a5a7b0U, 0xba969aa49aa09894U, 0x9896b19faba796b5U,
  0xae9a97a095b0aea7U, 0xab94aaa99798bdb6U, 0xb2ad9798a6a7ab90U, 0xb9afada1949fb3acU,
  0x9f9fb09b94a7a3c9U, 0xa8989fb299afa2a7U, 0xa6a699a99fac98a3U, 0x9891b6a8b1b4a4aaU,
  0x9c9d999797b1aaabU, 0x9ead9ea6a7b4999eU, 0xa696aca99aafaab4U, 0x8ba0b39aa7b4aaa8U,
  0x9e9aa19d95a1919cU, 0xaca79ea79c9e9c92U, 0xa99e9ca29395a491U, 0x9d94a8959c94a59bU,
  0x98a59ca3a999a994U, 0xa2ae9c97aaa7a7a0U, 0xa793a09fa19aa3acU, 0xae9f98aaa2a397a7U,
  0xaf9d96ab97aea9aeU, 0xa0a6999d929dae97U, 0xa4a8ae9ba191929bU, 0xa8a39e98a0af9fabU,
  0x989cad99a6a0a6aeU, 0xac9dae94a9a09594U, 0xa6a9a69fafa1a79aU, 0x97ae9a9ca69fa29eU,
  0xa8929895a6adafafU, 0x9aa19d949bab9fa7U, 0x9cab949ba5ac979aU, 0x9f98ae949aad9ea2U,
  0xa8aaaf9baea5aaadU, 0xab9baca6ae94a6a4U, 0x92a295ada09fa293U, 0x9ba69d9295a9a09aU,
  0x93939a9c95aba1aaU, 0xa1a095a6959698aeU, 0xaa99969796a7a794U, 0x9eaca59bab9d95aeU,
  0xa79ca49e99a29798U, 0xab99ae9fae959399U, 0xa3a6a292a792929bU, 0x9ca3aba2aaa6afadU,
  0xa8a6a0aea49aa396U, 0xaaa5a2a3a299a498U, 0x9cad96989da0af93U, 0x9dae939ba4a8969bU,
  0x9a94a797a897aca3U, 0xaaacad94a09ba1aeU, 0xa6a498a098a6969bU, 0xa093aa95a99596afU,
  0xa4999f9694ab9e9eU, 0xafaaa49da2aca59eU, 0x9799a1999a939897U, 0x9da09999ad92a9a2U,
  0xa3adaba3aaa1acacU, 0xa2939f9c9a9595a1U, 0xa1aea597ac9d95a4U, 0x9694aea3a897aea7U,
  0x97a1a2ac94afa7a6U, 0x91a894a7ada4a99eU, 0x99a4989c999da99bU, 0xa89a9a97aba699a8U,
  0x98aba9aba3a29a9aU, 0x95a9a7a89fa2a9aeU, 0x9191ae99ab92a39cU, 0x9b9ba5aea99b9ea5U,
  0x929f98a0a69698a3U, 0x939caba0a5a195a4U, 0x9d9c999394aa9ba9U, 0xa5a8a0a7a0ab9fa3U,
  0xada59493aba2a598U, 0x9eab9eacae9e92abU, 0xaeabae97a89b95a3U, 0xa79aa99496959993U,
  0x9b97989393ac969eU, 0xa2959b95a6ad9498U, 0x979fa1999e97979eU, 0xae99a2a4adab9f91U,
  0x9da8afa8a2a19994U, 0xa69b989b949eaa9aU, 0x9ea2a493a6949193U, 0xa7a8af96a5a5939dU,
  0xab91aba6a4a69aa7U, 0xa49a9f98a692ad92U, 0xaaa7ae94a5939ea5U, 0xabaeab9ba4aaa5a8U,
  0xae9594ab97a59b94U, 0x96929da394a6a0a5U, 0x9ea49da6abac96a9U, 0x97aba3a7a1a3a1a1U,
  0x91a3aa93aea3ab9fU, 0xa8939a979c9e9badU, 0x99a5aca4ac9d9faeU, 0xa6afa7a69b9ba0a2U,
  0x97aa9cae979cab91U, 0x93a498a59491acaaU, 0xabaf96aba19d9895U, 0xa49f92a1a7afaca9U,
  0xa79ba49aac92a3aeU, 0x9ba8ab9d94a79692U, 0x95aa96a39da29c9cU, 0x9c94ae97a6a2a0adU,
  0x9993a69da0a39e97U, 0x9da599a6aea591aaU, 0xa8a09c939da69bacU, 0x94ae95aa9692adacU,
  0x9d9c9392999ca593U, 0x9ea3a69599989fafU, 0xa69caa99a1a5a9adU, 0xad939e9dafaaa4adU,
  0x93abaaada29493a2U, 0xaca0929c96adaca2U, 0xa3a39da7a39a9d97U, 0x9a98a5929ea6a5a3U,
  0xaaabaa95af929592U, 0x94aaacab9e99979eU, 0x929f9a92afaba395U, 0xa9ada591a2a699a2U,
  0xa793aaaaaf99ae9cU, 0x9daeaea5a3aaa193U, 0x9fa2acaa9e94a2a3U, 0x9aa3a29f94a19fabU,
  0x999c92a2a9a5979fU, 0xad9e9da4a8a1a5a4U, 0x9eaea49c9baaa298U, 0xab9b9f9a9b9ea293U,
  0x7fa7adaaac99a59dU, 0xa5a2999fafa69f93U, 0x93ac959f9caa9893U, 0xaf9daaa09da79f95U,
  0x9fa4aca7a7aba999U, 0x9a9dafa2aaa09f93U, 0xa191a0a1959f95a0U, 0x96a1adaea09ca6a6U,
  0xa9af9795989f949bU, 0x989aa7a1a19caca7U, 0xa1a49ea7a7a7abafU, 0xad969d9ca792aea0U,
  0xa897a9a4af9ea393U, 0x9dae9a99999aa1acU, 0xb19d9999aaa096adU, 0xa2a599a296ada392U,
  0xac94aa9491a5a59cU, 0xa1ae9a9c96a69293U, 0x9691a89b9391a7a2U, 0xa5a79d94a99b99a9U,
  0xa999a1aaa894a594U, 0x989ea091aea8a7aeU, 0xaeaaaba8a7aa93a2U, 0x9ca8aea799aea5a0U,
  0xaf999a9b9e919198U, 0x96ac9da69ba4a3acU, 0x9d95a4afa7a2aa9aU, 0x9498a49ea1a295abU,
  0xa9a2a493a4acaf97U, 0xa097959da5a994a7U, 0xa7aa9eae9ba6a9a6U, 0xa1a8a69aad91a59eU,
  0x959d939e96a09dacU, 0x999f9f9792a4a99eU, 0xb0a9aa99999e93acU, 0xaaa99ba79d979894U,
  0xb092a59da194a399U, 0x9f9caeaba399a291U, 0x9a94a493999aad9bU, 0x9b9f99a1a5a6a99dU,
  0xa3989aa6ae9a9e9cU, 0x93acac9aa7ad9a97U, 0x9e9c9eaaab949b9fU, 0x9ea197a498af97aeU,
  0x999aac91959a99a2U, 0x9998979d96929aa0U, 0x9e9ca2a8939f939fU, 0xa993a2a8a592959dU,
  0x96a89fa293a899abU, 0x959eaf94a092a0a7U, 0xa2a2a5ada2979597U, 0x9fa6a49daba2a6a2U,
  0x98adaaa8a3a192a6U, 0xa1a5aba99fa5aba9U, 0x9599aa9ea495afaaU, 0x93a998989497a4acU,
  0xad989c929d98969cU, 0x98969493afa6aa92U, 0xb092a9a5a39aad9bU, 0xa79eaba89faeae9fU,
  0x9c9e91939daba3adU, 0xaa9da793afa6949bU, 0xa49d9395a2ab93a8U, 0x9aa7959f9ba69a96U,
  0xbea0a08fa99ca8a1U, 0x9ba4ac99a2a5abb0U, 0xa59aaf9d9f9fada6U, 0x9d9b8eb797a6b5a7U,
  0xaa9a9c83b1a198a5U, 0xa6ab97a09ea4a29cU, 0x99a19c82a09b9db2U, 0xb79ab3a2b29fa0afU,
  0xa196a39ab3b3a2a1U, 0xa5a1b09ab2a0b0afU, 0x9fa7af88ae9cb39dU, 0xb18fb5b69aa3b6a7U,
  0xa59994969fad9d98U, 0xb3a4aaa5a1b1a5acU, 0xa397a2a7adb49f99U, 0xb297b696a89db69fU,
  0xa89ca7aaa9b0aaa3U, 0x9aa6b4aea9b39d9cU, 0xa2a0af9cadafb5b3U, 0xa9a1a59eadabaf9dU,
  0xa7a9a1a7b29aaca9U, 0xb4b3b1acb3ac9fa6U, 0xb6a9ada8afaa9da6U, 0xb098b6ae98afa0acU,
  0x9ca89da19ea69dadU, 0xb4a39ea4b09fa6a5U, 0xaeaaada8a6a2b5a4U, 0xa6a0a299b0b0a9a1U,
  0x9fa9ad999aadb5a8U, 0xaeafa9a4a1a1a7adU, 0xa49fa1a69e9db4a0U, 0xacadae98a7a3a3b3U,
  0xa7b1a0ac97a9aa9bU, 0x9eafa49f9f9ab0abU, 0x9cad9b9aa1a5a7aeU, 0xa5a5afafa3b4b3b3U,
  0x9fafa3939db1aba9U, 0xb4aea19bb4a19fafU, 0x9aafa59696a1a594U, 0xb7ab9aaba4a6a8a8U,
  0xacac96afa6a79ca2U, 0xa9b2a5a6b0b2a5aeU, 0xa9a7a8b2acadaea8U, 0xae94b39aa4adbeadU,
  0xb3a59ca0b3a49f98U, 0x9a99b2a3a3a19ea5U, 0xb2a39e9ea8a1a1b1U, 0xb0aeb4aea6a69ea3U,
  0x999c9c9eaaa3a0a7U, 0x9babb19d9ca8aeafU, 0xb0a2abb0a49baeaeU, 0xaf99a89aada2a7a2U,
  0xb29c9fb39da699a7U, 0xada2a4be9ca9b59aU, 0xa9a4b19ea59caab3U, 0xb7a8a3b6b39cac9bU,
  0xa6a8aba39e97b4a2U, 0xababafb09baca6a2U, 0xaca699b49e99a3b1U, 0xa7a5b2a2a49d96abU,
  0xafa0aba2a7af9faeU, 0xb5a7b5b3b1afa5a8U, 0xac99b09a9eb3a9aaU, 0xb2a19bb6a8a69fb4U,
  0xacacb0aa9fb1a5adU, 0x9aa0b1a0999898b3U, 0xaea694ada797ac9dU, 0x9bb4a1ad97aaabb5U,
  0xa7a1a0a1a1a8b4a4U, 0xa6a2aca29e9ca9abU, 0x9a9b99a9a8afb5aaU, 0x9fa0a0acb2a89d9fU,
  0xa29ea1a2a8abacafU, 0xa79db6ad9eaab29aU, 0xa1a099a2b1a7a5a4U, 0xa6a69ea698a1a5a4U,
  0xaab1a49aa7a3a0a2U, 0xa3b1aa9f99a5b2b5U, 0xac9f99b2acabaeb0U, 0xa3a2a0a29a9ab1a3U,
  0xb3aea3b0a29ea2aaU, 0xb1b7b5b4b5b09e9cU, 0xb29cb1bda1a9a49fU, 0xa9b6b2b39d9caeb1U,
  0x9ca2ab9ea9a5a9b2U, 0xb2a1a4a4aab1b0adU, 0xa5ae9ea4a0aea5b3U, 0xb7b499b398adafb4U,
  0xafb29ab1acb3a4a1U, 0xaab1abaa9796a6acU, 0xa9a5a9abac9d9a9eU, 0xb0ab9e95a09aa0abU,
  0xb2a0a6b59aa2b2adU, 0xae9ea1b59ea9a2a0U, 0xa196b09ba3ada49bU, 0x9db2aaae9693b09fU,
  0xb1b497a1a1989da6U, 0xa8a4ad98afaac7a5U, 0xb1aeb0a0a3a99daaU, 0x9da2a4a29f9fafa0U,
  0xa7a9a1abb098b2a5U, 0xaaa398a5a2ad97a4U, 0x9aa7acb9a2aaacacU, 0xb6a39caba7a6aa97U,
  0x96aba2a09b9ea998U, 0xa8b4aba2ad9aaea4U, 0x94a2a69fa3aaa797U, 0xa4b2a8a39ab0bfa0U,
  0xa9aaa8b19daeb19cU, 0xaa9e9fa1aa98b88eU, 0xb79fa0b7a998a6b3U, 0x9b9f9da5b29faeabU,
  0xa2abaf9aada598b0U, 0xaeabaa9f9f95b194U, 0xb49f9e97a79ba9a0U, 0xa6a89bac9baa9da5U,
  0xa99d989e9599a6acU, 0x9fa0acb09c9da896U, 0xb998abaf93a898adU, 0x9fb2b3a9a8afab98U,
  0x9a9ba6a7abaa9faaU, 0xa2a1b2b5acb5b9a8U, 0xb4a3b3b1a1ab9ea9U, 0xa69699adb3a7939fU,
  0xb8a1a495a297a3b8U, 0x93aa9cb2a3aeaea0U, 0xa19898a1a69ea7aeU, 0xa9b1a7aca2a3b3a6U,
  0xa69699a4959b9ca2U, 0xb3a69ca3a9ada4aeU, 0xb3a5a79faaa6b1a8U, 0x9a9d9d9fa39bb898U,
  0x99a0a2a6a6b2b5a6U, 0xb0aaada099b3a3b2U, 0x9e99a1afadb0a7a3U, 0xb699aa9db29b9fa6U,
  0x94a5ad9e96a09e97U, 0xa3a4aaa39b9d8f9aU, 0x9a9da4b1a5abb5bbU, 0x8faba3aaac97a1aaU,
  0xab9da5b597a4adb5U, 0xa4a3aba79c9e9b95U, 0xafb5b2a499aab6a9U, 0xaa9ab5a697a6b0a9U,
  0xa0979da39bab9aa7U, 0xada7b09c97a5bba5U, 0x9da3a39fae97aba7U, 0xad98a2a9aeacbda3U,
  0xa3a0aca1a69eafb0U, 0xaeaca7a99bac929bU, 0x9e9fa1a8aca0a6aaU, 0xada6b9a7aeb29ba4U,
  0xa498a7ab94afa5adU, 0xa89198a5ab96b699U, 0xa3a1a6a2abac9eafU, 0xb397bc999eacb8a4U,
  0xa99ca19dab9d98b9U, 0xa58ea9a1a1a7b699U, 0xa4abada99ca3a7a7U, 0xb09f9a9baea1c29fU,
  0x9a9499a8a8a79bc5U, 0xac83b9a7acaabb96U, 0xad9ba3a79db0a4a8U, 0xa88fa19ca49fb2a2U,
  0xae9fb0ada79fb2bbU, 0xaca9a6aeafb1a1afU, 0xaa9a9ca99c9e9892U, 0x9597b2aaac96a9aeU,
  0x97a897a39bb0aab7U, 0xada09d9cafa8afa6U, 0x99ae96a29faeab9bU, 0xb89d9da3a1a5a1aeU,
  0x98a9a39f9eaa9bc1U, 0xa09aafb19f969e92U, 0x9aa5a69997a2a7a0U, 0xab95b5a2a59e9c9fU,
  0x88a5b095b0979899U, 0x9cab9cb192a09dabU, 0x93a6aea9aaa19aaaU, 0xa38daab59b95a4abU,
  0x8293af80bbaaa47cU, 0x79b46ec78dffb4d8U, 0xad9bad73b0a29d91U, 0x9eb57586b5b6ada6U,
  0xa1a3ab78aba99a77U, 0x99af6b8ba1a5799bU, 0x7cacb177a3a9a2a0U, 0x8dc289989ea28fa7U,
  0x96a7bd7e98bc9e77U, 0xa8be9c9ab69d8f98U, 0x7ca8bd9ca79fad96U, 0xa7b78791b4a16b9eU,
  0x9baeb2799bae9b80U, 0x91aca27eb0a5698dU, 0x84aebe84abb49880U, 0x8db1a18ca9a97e8eU,
  0x859dbf9ab0adac6dU, 0x97b99f85a1986fa3U, 0x8d9cb5a99a9f9681U, 0xa8ca8cafa69b4a8fU,
  0x90aab68ba2a2a498U, 0xa4d3a497afa7789dU, 0x8da7ad7e96b89b87U, 0x90ad8e87b29543a2U,
  0x86aab18a99aea67bU, 0x9bc592859da8489aU, 0x8fa3b599b6a8989fU, 0x9eb89e75b4a7589bU,
  0x9aa9b4a6a2a3a67fU, 0x9ec1a4959a9a7f97U, 0x9dacbd8fafbbaa90U, 0x91c38a7b9eac4e9eU,
  0x9497baa5b0aeb172U, 0xa5c09989aba80093U, 0x9c9fbd8a9cb1ad97U, 0x9aaf9087b3a5589dU,
  0x8aa8aba2a3a9a57cU, 0x9dc79984aaa06199U, 0x9ca2b17a98acac7dU, 0xa9ad8e94b497439cU,
  0x8faaabadb0a19f87U, 0x9cb48c94abaa2d94U, 0x97acab9b9ea9aa87U, 0xa1c78a92b5a55e91U,
  0x99a1b6a8aab0a38bU, 0xa7c392a19ba6599aU, 0x9cadb9aaaba19c8fU, 0xa8b49985a1a87d9aU,
  0x8b93b59d99ba9395U, 0x98b5a1b0a19e739dU, 0x9bada97ea19f9f7dU, 0xa7a48b7bb0a436adU,
  0x8398a7a6a39eb189U, 0xa2b39089a69a77abU, 0x8c96c2a0abb39c8cU, 0x91b48faca9ae3c9eU,
  0x93a3bf9fa9b3a1a6U, 0x97bc8f919ea4668cU, 0x8997ab9ba8a7a493U, 0xa4c5978ba9a54498U,
  0x869bbd99b7a29788U, 0x9dc7a099b19e7b9bU, 0x8c98bd8aa5b79d91U, 0xa8b09b7e9ea446a1U,
  0x97a4bd85a79f958bU, 0x96b5928f9ca2319dU, 0x92abc0a99cb69c8eU, 0xa3bb9e93a2a375a5U,
  0x999ba78da5b69f88U, 0x97b19c98a09a6096U, 0x8aa7bb95b6a9b086U, 0x95ad8fad99aa4a8fU,
  0x9a9eac8db4ba9c99U, 0x9aab8d93ab9961aaU, 0x9893bba1a0a2ae9cU, 0xa0b8968ca29f558fU,
  0x83aab7a9b5b2ae8bU, 0x9ec29ba1aba05595U, 0x8bafb985a7b89c91U, 0xa3ae8e9fa6a150a4U,
  0x949fbc9ba2a2ab87U, 0xa4c389869fae6296U, 0x9898aca9a0a59495U, 0x97c79096b5b0589aU,
  0xa0a7b19f9fada499U, 0xa7ca8b839f9f8292U, 0x97a9a98eb69ead90U, 0xa2bda1a2b6965a9fU,
  0x9997afb0aeada69bU, 0xa3a8896eb1975f9dU, 0x5d9ebc888eb49b93U, 0x9f99947da57e686dU,
  0x3fa7ac889cba986aU, 0x95c79b6a88525a56U, 0x20acb09097adaa5dU, 0x91c98a688e2c7b2fU,
  0x5696ad81aeaea661U, 0x98a78d906a608f41U, 0x6ca5ae8b9da1ab57U, 0xa7a682635955845aU,
  0x6397b788aab09467U, 0xa99f885a5d7bad5fU, 0x5ca5b88daea3ad57U, 0xa5a97b783a72ab76U,
  0x7097bb7aafa1973bU, 0xa6b17c72156d7c66U, 0x71a0b670a0baa02bU, 0x92c29e762f707962U,
  0x8ca3af879caea37eU, 0x92b7a677268f7071U, 0x80acc79da2a0955fU, 0x98bea88c2f869682U,
  0x8fa4c0afacbc9c64U, 0x7db28c7a50878172U, 0x82b1a8a0b0bba58eU, 0x85a37b7b64899380U,
  0x73aeb66c9da09762U, 0xc6aba26f5186a687U, 0x8bacac83b9b3965eU, 0xbcce7e864c7b737eU,
  0x8fa6b184b7a4b066U, 0x88a8976e637e8374U, 0x8ba5c17da1b5a354U, 0x5ab58c797183807dU,
  0x8596a569bab89b4cU, 0xadae8979598d968fU, 0x8db0ab8da0b2aa4bU, 0x99b6a47873759586U,
  0x8c95b285bba9a45eU, 0x80b2ab736c799e7bU, 0x86a4b480a0a2a654U, 0xbecc8774828f6778U,
  0x9292b67d98adad6dU, 0xa7bdbf6f5f8ee08aU, 0x8ea4bc99aea79a51U, 0x87c1a5746583828cU,
  0x899ac38ca99fb144U, 0x9cbb95746f89797dU, 0x7497a58baeb6a980U, 0xa1c69878678c8e74U,
  0x8ebab47e9ba09b79U, 0xb2c4999977845f82U, 0x8aa1b186a6b79972U, 0xa1bab4777e896c78U,
  0x8fa1b784aca7b04bU, 0x9fc9a36d77877483U, 0x8ba0b077aebc9782U, 0x609f7e878e844f86U,
  0x8f97bb84a5baac72U, 0xc3a98e6f7887ab9eU, 0x8aaebe9aabae9f63U, 0xc2cb878a9a809490U,
  0x85a4c181b5ac9969U, 0x7abd956e7f83838fU, 0x8d97c086aeaba175U, 0xa9a6878e73917688U,
  0x94acb692b2ada095U, 0x84b8907e7f837985U, 0x81aaa9b6aaa59a81U, 0x7dc49d6d92808c80U,
  0x81b7bf89a8b29d92U, 0xaba4877b7e7f3f7dU, 0x8aa3abb2a4a3a99dU, 0xb5b295929084ae98U,
  0x76a5a687b59ea88cU, 0xc0b7ad64907c9184U, 0x7f9ab8a0aab0a574U, 0xb7d197777c81b882U,
  0x80aaa599aeae9360U, 0xa9a98080818a6087U, 0x78a2ab80acb5945cU, 0xacc89a7786868f8cU,
  0x8d9fb6929ca5aa82U, 0xa0ab91868f93b28eU, 0x92a4bc999cb49587U, 0xaba390838d7b9f96U,
  0x9a9fa78aa1aea97cU, 0xa0a686706e846989U, 0x87a7aa88b5ac9b80U, 0xabae78857c7a5f8bU,
  0xaca1a491b1aa9a9fU, 0xabad9eb1a99fb3acU, 0xa09aaba596abafbfU, 0x999c9ba29e99b8acU,
  0x9aab989396aea7a0U, 0xa2a29b9faab5a9a5U, 0x9eae9a9699a098a1U, 0xb1aa98ac9faf9cb5U,
  0x9898a797ac9a9db1U, 0xb0a2a4b39facbbb4U, 0x999cab9dafb5a3a1U, 0xa28fa1b89ba798b5U,
  0xaaaca49ba5ada4a0U, 0xb6a3a1a2a0a5b2a4U, 0xa5aab08cb4a4a7a8U, 0xb194a4a1a0a6b29eU,
  0xb097b28fb0aca2abU, 0xa3adaba5a1a2abacU, 0xab97aca2a5a4a6aaU, 0xae9dada8a9a9bb9bU,
  0xb3b1a8aca4aaa3a5U, 0xa1b1a19facafb0a8U, 0xb7a4a4af99a59a99U, 0xb4ae9d9caca7aea6U,
  0xac9e969fae9fadafU, 0xaeabb0a3a1adaf9dU, 0xa6a4969e9bb4a6acU, 0x9fa3a6a9a9aab1a1U,
  0xb1a89c96afa3a294U, 0xb099a0b0b4b49fb2U, 0xae979ea4a3a29fafU, 0xabb29fa2a5aba4b2U,
  0xb59b97acb39d99a4U, 0x9fb6a6a6b0a1a5b6U, 0xa69898abaf9e9ca7U, 0xb4a4a2ab9fa6a1acU,
  0xa2b0ab97a09da194U, 0xb59fb1b0a79fa09bU, 0x9a9998a2b3b5a8adU, 0xa49da09aabb3a3a9U,
  0xa3b3a999aaa3b4b0U, 0xaaa29fb59fb5b9a1U, 0xaea7a8aaa49da2abU, 0xa597a4a0a7a3b6b7U,
  0xaba9a1aeb4a1a8a5U, 0xb19da69ba6999bb2U, 0xacae9dae9dafa1b0U, 0xb2a4a19baf99a99bU,
  0x9a99b2b29aa3ad97U, 0xaaa9ac9faeacb19aU, 0xa1aea4b5a99797aeU, 0xa6b0a2b1b498a299U,
  0xad9aa5b9b2a3b5a4U, 0xaca3a0b7a8a1a9a1U, 0xa198b2ada5aaaab7U, 0xa4a2b6b398a0b1b0U,
  0xb2a09da8aba9acb3U, 0xaaaab1aca59f9fb0U, 0xb398a4aba8a5a9a4U, 0xb39d9eada09db0a2U,
  0xb3a095afb3a19cb3U, 0xa7b4adb7a9aa9da9U, 0x9baba7b6b0a6a9afU, 0xa1a6b6ab97b1a9b2U,
  0xb3aa9cb4abb49f9bU, 0xb7a29c9ba69faca6U, 0x9aa8afa99eafb2a2U, 0xa8a7999697b1b6a1U,
  0xb6aaaea3a7b4b49bU, 0xabb7afa19d9eb0afU, 0x9c99b0b5a3aea6afU, 0xa1b699a69aaca3a0U,
  0xa7ab969e9c97a1b5U, 0xa8a5aba2979ca2a8U, 0x9e9d9caaa99e9f9fU, 0xaeb79e9cb0aa9faaU,
  0x9db2a8ab9ca4a19bU, 0xb7a5b7aeb3a3a7a7U, 0x9daf9fa9aca1ae9eU, 0xb39db699b39ca89aU,
  0x9da8999d9ba39db2U, 0x9ea8b2b099b29c9eU, 0xb3a29da1b4a6b2adU, 0xa8b6a5a4a1b39fabU,
  0xa5b3b1a8aeafab96U, 0xa79eb2a8a4acaaabU, 0xb3acb2a4a3ae9cb3U, 0x9ba799a8a5b1b7b1U,
  0xa5b1afae97aca1b1U, 0xaead9d94aeb19dacU, 0x96a8a9aba7a39a94U, 0xa8ae9c9497aca39fU,
  0x9c9d9da0aeb1a8abU, 0xaa9da09e99978fabU, 0x9baeb3a5a69f9daaU, 0xaca0aba899a2b7afU,
  0xa39bb1b09f9aa799U, 0xaf979999a7b0ad96U, 0x9d9e97a696a39c98U, 0xb3a2aea09b9b9e9aU,
  0xa9a3a39ba6aba694U, 0xb29999a3abac9c92U, 0xb3a3b4a0a8a99da6U, 0xb1b0a3b3abaf9aa8U,
  0x94aea9ada2ab9a9bU, 0xa3b695a19faaba94U, 0x93a7a79aa8a8a4abU, 0x9ca799a6a4adafa9U,
  0xa2a89da699999fa9U, 0xb0aaaaa6a199a69aU, 0xa7b09bb0b09faea4U, 0xad9e9faeb3afafb1U,
  0x9c989eb09fa49da5U, 0xaeb2aeafa2abbd93U, 0xbfa4a9abae9ea296U, 0xaab3a8a0a5a18ca5U,
  0xa3a7a6aaa89ea4a2U, 0x93a09baea7a7ac9fU, 0xbda69ea8a4a198a6U, 0x979db6a6b3abbaa1U,
  0xa49aa7afa0b4a2b0U, 0xa8b1b69da39eb9abU, 0xa89797a8a9a39f9dU, 0x95aca2a79a978e99U,
  0xa29dad9c939fb4a4U, 0xad9ab7a9a8a0b0a8U, 0xa39a9cb499ab9eaaU, 0x949eafa0a5a2b5aaU,
  0xa6a49db3a19baeabU, 0xada4aa9aa0aeb89bU, 0x9db498a7a2aca0b9U, 0x9aa5aab2a6a6ae9bU,
  0xa7a0a8a49ca79ba6U, 0xb29d9cb1a598ad9bU, 0xb39eb1aa9cb1a0b0U, 0xb5aaaaa6b3acb394U,
  0x979e979997a297a3U, 0xafb596b59d9faa9cU, 0x9f959ba198a49ea9U, 0x99a19fa79ba9aca0U,
  0xaca8a5b4a3a49da1U, 0xa2a8b3ab9c97b19dU, 0x98a7a1a69cb298baU, 0xb2abaaa7a69db39bU,
  0xafb0a2aa9da1b2b4U, 0xb5b1b39ba1b2aca7U, 0x96ae9bb0a1b0aea4U, 0xafa1ada49497aca9U,
  0xa7aaa5a6a5ac9fb6U, 0x99a3a1aeaaab96a8U, 0xa699a6aea6a9b5b2U, 0xb1a89f9da29aa4a6U,
  0xa8aca1a09db0afa9U, 0xaba4a7a696a6aaa9U, 0xb0a7a19ba7b49cb3U, 0xa1a4aea29fa5b0a0U,
  0x9ba5979fb0a49abcU, 0xa6a0a9a6a397b194U, 0x9cacac9ba2b59fadU, 0xa1a09fb0acb0aaa7U,
  0x9cb1a1a8a69eacb0U, 0x9b81a29aa5b3b1aeU, 0x92b0aca79aa8b4aeU, 0xbf8ea8aca5a7b6a6U,
  0xa49f9d9b96b49abfU, 0xaf99b8af9c97ab9bU, 0x9aafaba4a89e989fU, 0x9d96a8a6a9a99896U,
  0x8ea1a3a499b09fa6U, 0xa1a9ba98a5a5b3a9U, 0xb19eaca4a8b49d8fU, 0xbca6b49caca3a3aaU,
  0x9b9a9ea6a29ba7b3U, 0xb792afa498ac898cU, 0xab9da2a9a3aea8a9U, 0xa29eb7b2b298a7a2U,
  0x91b1a49fa7a49faeU, 0xa09b91b19bb29ca9U, 0xab9997a8a4a09ab2U, 0x9fa7b1a495a3ab99U,
  0xa0aca5c0b597a5b4U, 0xbbafb898b58e9aa4U, 0xb9999dc1b2b3a683U, 0x96aac185b2908b9dU,
  0x9e9caabcb29aa39aU, 0x9bbdaea8908badaaU, 0xb2b1b1bb97afa0a9U, 0x91b7b198979595a2U,
  0xa1a3b5b69eae9fa5U, 0x94bcaa9796a08b96U, 0x97b0a8a39a9fa68fU, 0xa6baa6aa9d96aaaeU,
  0x96a2a7a9a0a493a8U, 0xa1b997a699a68798U, 0x9aaaa7b4a8ae93b0U, 0x9fb69fa1a6ab8eaeU,
  0x96aaa1a99ca3aea1U, 0xa8b1929ea9a3a0a8U, 0xa3afb5ac9f98a0a4U, 0x9ab5a7a79e9e97b0U,
  0x8fb6b599ad9f9aa5U, 0x9495a68ead9888b0U, 0x95b6b497afa5a4baU, 0x95a999b4a3a49893U,
  0x9ca2b0a3a598a2acU, 0xa3a9ada1b394a2a2U, 0xa1a19a9d9ea4939eU, 0xa4abaca3aea4ae94U,
  0xa4a6b2ada19fa4a1U, 0xa4b5a1a1aea27dacU, 0xaba69aacafa9ada1U, 0xac99939aa09e8faaU,
  0x94b2aba59faf99a1U, 0x9191a5b09e9997a9U, 0xa2b2ab9fa8979599U, 0xa0a7aea69da08aa9U,
  0x95b29fa79b9baca0U, 0x93a4ad9aaa9cb099U, 0xaf9a9fa8a0aba0b3U, 0x9ca9ab9da1a98d9aU,
  0x8db09fad91969996U, 0x97b29aa4b19b84a7U, 0x969e9baca1969a9bU, 0x94b8a1a4a0ae6d91U,
  0x9caea7aca8ac9ba1U, 0x9d9aad9eb2ac979bU, 0x969d9d9095a39e9eU, 0x99a59faab4a9a0acU,
  0x979ea4989fa5a296U, 0xa59991929a978d99U, 0x9e9da899abaaa09aU, 0x8fa9aa9caea3a19cU,
  0xa9a9a3979eab9eadU, 0x91a8a192a6ae80a0U, 0x9e9bafa59ba999a0U, 0x95999a90a9a394acU,
  0x8fa7a399b09ea89cU, 0x9c9597aea3af9394U, 0x8d9da89d9cab9da3U, 0x93ab9298adaca8aeU,
  0xa2a1a4a89e9cadaaU, 0x90a1a78faba899afU, 0x96a1ab9f99a797a8U, 0x9fa9a594a0ae97a6U,
  0xa4b0a999a4ab9aa5U, 0x9aa79fa2a9ab8da2U, 0x9fa3b595939fa9acU, 0x9ba0a3a89da29b9aU,
  0x94a09cab9d9a9aa5U, 0x9290989db49b8491U, 0x8bb39a93acb3a5a8U, 0xa59c9a9e99a484a7U,
  0xa0aeb1af9fae9d99U, 0x9f9b9c8fa3ab9c93U, 0x9fb6aea0a6a1a1aaU, 0xa0a7988ca6a586a5U,
  0x99b2aaa0b097ad9bU, 0x98b1a792b19b8a9eU, 0xa1a8a0af9da399aeU, 0x9196ad9ea8989694U,
  0x99b6ab969ea99eb0U, 0xaaa7abafa8acb8a7U, 0xa3b0b49898ad99a1U, 0x8e9794a2b2aca8abU,
  0x929fa9a294aba5a1U, 0x919f9692a59f9da1U, 0x96b0af989098949eU, 0xa1969e9b99aa8eb0U,
  0xa0a2a49baf98b1a9U, 0xa1b395b9aba6a6a6U, 0x99a1a5b1b5a9a2baU, 0xa9b995d2acb7b6b0U,
  0xa1b4a4a1abb397bcU, 0xa3aca2a2a9aeb4aeU, 0xa6b3aca1aba19abdU, 0xaaa6a290aaba96a3U,
  0xa09eb0a7afa7aa9aU, 0x90a7a59fadb48ca7U, 0xb0afa194b096a39bU, 0xa4a0a3b1aed6a6afU,
  0xbe999bb4b19997b5U, 0x96b5a7a493c491c3U, 0x98ae9b99a89eaea0U, 0xa1a6a9889fbd93a0U,
  0xba9cb4a5b997aaabU, 0xa793b887959e8ec9U, 0xc6b9aeafbea8a1adU, 0xa4aea89895a1968dU,
  0xa6a49e97bca39f9bU, 0xb59da489a3a59ec1U, 0xa8aaaa97bc9e97a4U, 0x9f9fc1a39196a8afU,
  0xb0adaa9daf97a677U, 0x9f9d9c9c8a9980aaU, 0xa4b1aab6b09eaca3U, 0xa6b0af9b9196b19dU,
  0xac9aa9abc3b09ab7U, 0xa998a5b481ada3acU, 0x9aaaada7b1aba497U, 0xaba8a4ab94a9909cU,
  0xa3a3b1a8a3a2ab8fU, 0x9498a38f868c91a1U, 0x8daaafa49c999db0U, 0xafafb4909297b0abU,
  0x8db6b2b2b597ab66U, 0xbbb1a59f8ba2a199U, 0x93a4a0a7b3ada961U, 0xa4a3a5968f9f9c9aU,
  0x93a7b196ab9b9f99U, 0x9d9fa1a2869a879aU, 0x8a99adbbb5a8a27eU, 0x9a9aa8927e8f88aaU,
  0x99aa9cc3b6a9a680U, 0xa1a3a0c48da9969dU, 0xa3a9a5a99fa3a479U, 0x8cbb9488909494a6U,
  0x97af9ab1bab3aeaaU, 0xa995ab95aba0ae9dU, 0x92a59b95a6a9957bU, 0xa3b2949b95a4a3acU,
  0x98abb498baa0967bU, 0xb2beaa9985a3a7abU, 0x8ea9b4aebaa4ab8dU, 0xaba2869e959c8da7U,
  0x85b0a5a3b4afa766U, 0x90ae938a91a097aaU, 0xa8a9abbabaa1a775U, 0xaab2a87da195999eU,
  0x8facafaba5a49a8cU, 0xb597a1a68ea5c6b0U, 0x8fa8a494a5b39eb0U, 0x9ca78e8f7a8da1b4U,
  0x9fada6cab69e9978U, 0xb6c9a09596909ab8U, 0x8f9fb8b1c39ba27dU, 0xa7a3869a8a928693U,
  0x9aa2accdbcb39758U, 0xa0b68c869e92909fU, 0x95acb1a5b8a7a884U, 0xaab28d8e978a83aaU,
  0x8a9da2bcb3979a64U, 0x9fb595958f929198U, 0xa3a2a1bcaba6a58dU, 0x8dbf88a2a3a09ca3U,
  0x87adb2b2b5a09e76U, 0x9aa3a8ab91a4acb9U, 0x89a1b1b59ea6a2d3U, 0xa2b29e9498a0a59dU,
  0xa59db7aeb7b0ac8bU, 0x899c99939e9a97acU, 0x89b1a1aca7b19eb2U, 0x96ac8e99968997a4U,
  0xadad97ccaab19953U, 0xa0be9577a2a2b8b0U, 0x9a9b9eb1a6b29680U, 0xabbb8c94819394aeU,
  0xc5ada5d6b0a2a0aeU, 0xb19cab94ab89aba0U, 0x90adb0c2b0a3aa72U, 0xacb490869e9ca5a7U,
  0xa49692a59a9ea3a7U, 0xa7a2aaad95a9a69eU, 0xa1959a9aa5a998a1U, 0x919cab93a79aa3afU,
  0xaaa4ab9dad9b96adU, 0xa7a6ae9ca2a09bacU, 0xacae9a90969c939cU, 0xa9ae999198a2a9a3U,
  0xaaa69a9aaea5a89dU, 0xac9b97a9919c9f9dU, 0xa69a92a9a69ea7a2U, 0x96a197a4a895a6acU,
  0xa5929daba293919dU, 0x94af9d9592a39ea7U, 0xaa97a296a798969fU, 0x9297979ea4ab999cU,
  0x9f9895a7a09a9b95U, 0xaba9a090a790a2a9U, 0xa7a59c98a9acadadU, 0xa59796a69f94aaaaU,
  0x96a1a7989da19fa6U, 0xa29ba0a6929ea899U, 0xaca8ab9f9bac9eaaU, 0x9daf9b9f9f95ae99U,
  0x91a79295a394adadU, 0xabaaaa9b9d979b95U, 0xa5a3ab91aaa3a2a8U, 0x9e9b959da395abaaU,
  0xa9969fa99496a99dU, 0x91a0a6a099a5afadU, 0xab94a198939c9aa1U, 0xa69aa3a7a5a39f93U,
  0x9a98949b91a3939bU, 0xab98aeaaaca39a93U, 0xaeaea698959da897U, 0x9da293919aa193afU,
  0xa2aa9b92ada79597U, 0x9396a3aea3a4a3a8U, 0x989da79a969f9ba8U, 0xada699a99fa896abU,
  0xaa9f9aacada09ea8U, 0xaaa69b9ba7959caaU, 0xa29da8ada0959daeU, 0x9ba8a2a69daf9c9eU,
  0x969a949da89c9894U, 0x9c9ead9e9f9da3a9U, 0xa5a0af9ca9a69f98U, 0xaa96a7989b9c959dU,
  0x9eab969da99eaa91U, 0xa8a1a3acaaa1a8a1U, 0x9ba8959199a09aaeU, 0x9192a2ab94a8a1a1U,
  0x97a09a99a9ad9f95U, 0xaca0939da1a1a8a8U, 0x9994a6949e96919dU, 0x919ead99aaa1939fU,
  0xa1a89cabaaa0a69dU, 0xa79ca6a891999398U, 0xaeac9da2aa9f959bU, 0x9aa998919492a4a6U,
  0xa691aba8aba3a895U, 0xa99ea39c9396aaadU, 0x92a9a79c99a59a94U, 0x96a69aa7a597aeadU,
  0x919a9ea7aba99f9fU, 0xaa9d94a3a89f9a9bU, 0xadadaaac9597aa9eU, 0x9d9c94a7969aa297U,
  0xaea796ac95ae9a97U, 0x91ac9fa392919491U, 0x99a1a296a993a698U, 0x98ae96a59da595a5U,
  0x9a98a191a195949aU, 0xa9aca797949592adU, 0xaaa19d9ba29e9d91U, 0xaa9f969f9695a6a6U,
  0xa0ad9ca291aca496U, 0xada49ba0a49aa8a7U, 0x98ada5ad939eaaa3U, 0xae96a6a3a4ada4aaU,
  0xa494af91acaca0adU, 0x979492a4999392a6U, 0xa398aaa293939badU, 0x949999ad9299a59eU,
  0xa9a0aaaba693a2a7U, 0x94a4a0a5a1a1aaa7U, 0x9d94b0a4a4a7a9a7U, 0xa89f97aca3a7989dU,
  0xaaa4aea4ab9ea394U, 0xaea195a0a59c9192U, 0x99a8969491929dabU, 0x969ca2ac9da2acaeU,
  0xa496a1999497ac99U, 0xa4af98aeac9e9e94U, 0x9ca9949e989697a4U, 0xa1919694979e9ba4U,
  0xa19599969c97999eU, 0x919c9e96a09da29fU, 0xad9e9ca698a19895U, 0x9d9996a996a2949dU,
  0xa59aa49c9e9698acU, 0xa898999c95a8ab97U, 0x95aa989da1ac9492U, 0xa79aa6a992a195a2U,
  0x9ba997a3a3ae93a1U, 0xab999a96a996a0acU, 0x969ba991aca0a4aeU, 0xa1a8a9a799969196U,
  0x9fa09491aea1aca4U, 0xa6a797aea99da595U, 0xac9ba1a19baca2acU, 0x979c95ae9c92a8aaU,
  0x98a89e9f96ad94a5U, 0x91a09b999aac9a93U, 0xa49497aa96a393a0U, 0x9aa5aa92989baa93U,
  0x9ba194ab969da795U, 0x9ba69597a6949ba6U, 0x95a89c9793a39ea1U, 0xaba0a7ada49d929fU,
  0x959797ab9da5a299U, 0xab9a9596aaa9acaaU, 0x9e9da4929fa294a0U, 0x94aeabad9caea99eU,
  0xafa2a4ac9994a7aeU, 0x9b91a791a39b9d91U, 0xaba2a696a7999d95U, 0xa195949aa0a395a5U,
  0xa4a196ab9a9d93a6U, 0x959495a89e9d9faaU, 0xa191a3aca89eab9dU, 0xada59195a8ab9b99U,
  0xad9e95a293a0a3a7U, 0x98a5a19da9acaaa5U, 0xafaca3aaac9b979fU, 0xa2a2a69f9b949b99U,
  0x97a899a1a897aca3U, 0xa393aaa2a39ba096U, 0xb19e9192a7a0a0a0U, 0xa79791a0959ca590U,
  0x959da097a0999ba1U, 0xa19a94969aa9aa97U, 0xaa9793ab9caa919bU, 0xa99aa193929a9697U,
  0xa0959a9facab9cadU, 0xac91a3ac9caba695U, 0x9c95aaa4a59691adU, 0xa49ea59795a2a7aeU,
  0xa6929aa5a892a09cU, 0xa09ead9aac99a7aeU, 0xa4a1969c91a3a09fU, 0xac99ab9c9eaaaa91U,
  0xb09fa39191a2a4a1U, 0xa8a9929597aa9d9fU, 0xafab9b99aca4a599U, 0xa4a3a79eaba49193U,
  0x9a9eafa8989994a5U, 0xa4a19d939596a3a4U, 0x9ca898ada6919994U, 0x9f9fab92acac95a1U,
  0xa89ba0a59bac9ea4U, 0xa19b92a8ae999c9eU, 0xa19bab949694adadU, 0xa3a7ac9a9ea79ca8U,
  0xaf939995a19d9ea6U, 0x93afabac94979ea7U, 0x9f97a79da79bacacU, 0x95b19ea89d919297U,
  0xa3a29c99aaaaa8a9U, 0xa7ad91a7969a9ba3U, 0xaf9baea8acad9e96U, 0x94a3ad9dad9890abU,
  0xa790acab929ca793U, 0xa4a8999893a9a49eU, 0x9ba8ae99a4a1a197U, 0x97959e9297a4a0a0U,
  0xa898a59c92aba396U, 0xac9f9f9da1a0989fU, 0x949997ada991aca3U, 0x99b1abaa939994a3U,
  0xb998a29eaea8a09cU, 0xa0a8b0abaaadae9eU, 0x9da2959ca2a4aba9U, 0xae9fa0b2b2aec1b5U,
  0xadb2af8dab9e989aU, 0xb2a3adb4b79e97b6U, 0xa7b1ac99989fb0a7U, 0xae9e9e97a39f9cb1U,
  0xb3b49c8c9bb2b1aaU, 0xb59f9aabb4abaaa7U, 0x9e9e978ab49aa9a3U, 0xaba2999c9c9db5aaU,
  0xa8a8b29798a99f9fU, 0xaea3af9da7a8b0b2U, 0xb1afaa99ada2b1a9U, 0xb5afb19a9caeb4b4U,
  0xa8a3a39f969a9aa7U, 0xa1a099a1afa4a7a6U, 0x9aaf97a4a9afa3b3U, 0xa497abaeaa9aa0a3U,
  0xb5aba7a798a5a4a9U, 0x9d97b4a9a2b3aca5U, 0xb0b19aa09e9fa796U, 0x9b9aa2a9a0989eb1U,
  0xaa99a8a2b3b498adU, 0xabb0ae9ca4a8afa7U, 0xa69696a7b09eb1a9U, 0x9ca8a2aaa1b2aaa9U,
  0xafb3b29e9da4a6a7U, 0x9ba7b5b4a0a4aba7U, 0x99a69ca99fb4afa8U, 0xb3b49db1a79b9db3U,
  0x9f97a99fa1b0a493U, 0xa89d9dafa6adb6a9U, 0xacaaaea097b2a4a8U, 0xa897a2a1a697b6a9U,
  0xa9afa0abb3999f97U, 0xa5a8aca7a1b29fa6U, 0xa7b4a8a6aea8b1a0U, 0xaf9ab1979c97acb4U,
  0xaab2a39ba89d9da9U, 0xaea3ac9da29da09eU, 0xb099ab9fa7b19c9dU, 0xb49eaeab9aadbda5U,
  0xaba095a3a9adb2a9U, 0xa2acb4a497b19d99U, 0xb0b2b2b8b5a8b3aeU, 0xa0a0b29fb29bb3a7U,
  0xb598a9a4a5aaaaadU, 0xa498b1a3a5a9a0a4U, 0xb4aeb3a1b09fa2b2U, 0x9aa39aa1aa9aa9a4U,
  0xa4a4a6b7aba5999eU, 0x9aada7bdb2abb2a8U, 0xaca598b6a5aeb5a2U, 0xa697aab89facadafU,
  0xac9ba6b3b3afaa9cU, 0xafa1aca7989ca7b2U, 0x9ca6a5aeb598a3abU, 0xa2a5aeb39daeaeafU,
  0xa2ada5a8b5aba6a9U, 0xb79cada0a4aab4a6U, 0xa4a3a09bb2adab98U, 0xb0a69ca99bafafaaU,
  0xb6a3abb5b1a5b499U, 0xafb5b0b09a98a0b3U, 0xb1a0a49ea4a09aaeU, 0xa9a59fa6a4a9aca8U,
  0xb1a39aa0b1a1ac9cU, 0x9da3a49cae97b0abU, 0xa9aa94b0b5adb0b0U, 0x9fa2a7a59eb0ada4U,
  0x9bab96aaa5b0b5b5U, 0xa3b3aaa6aaa89eb3U, 0x99a49ab3abaa98aeU, 0xaba1a3a5b0a8adb3U,
  0xb6b394a6b29eafa0U, 0xb29d9a9fa8a3a09bU, 0xa4b0949eafb4a0b0U, 0xa89a9b9aa8b5acacU,
  0xb5afa6b89e98a1a8U, 0xb1b4a2a7a2a99bb1U, 0xb0a497a9b0b29da4U, 0x9eaf9bb5a1b1a1b3U,
  0x9dada7b6b2a39aa5U, 0xadab9ab5adaaaca9U, 0x9eabb09cafb0b4a8U, 0xb5b5b0a2a8a7b5b6U,
  0xa5a3aeb1b199b59eU, 0xb4a8a5a8a3a9adb0U, 0xa79da8a7a4a0afaaU, 0xafa3b6959faead9aU,
  0xa496acacaca7b5aeU, 0xaea3a6afae999f9eU, 0x99af9eb0a4999a9dU, 0x9bb299aa9898a29cU,
  0xa9a6ad9ba1abaf98U, 0xb69ea9aca9aab29cU, 0xac99a8a0a5aab0b0U, 0xb59e9a9cb1a3a3a1U,
  0xa5a59c989ca99da9U, 0xa89ba6aab1acb0aaU, 0xa4b19f9dabb2aaadU, 0xab9fabb0afac9f9dU,
  0xa6a5a0b09f9cb0a1U, 0x9ea3ae9cad99b2a4U, 0x8fa095a896aea596U, 0x95a79eadb3a1bb9fU,
  0x96a798ac9da098acU, 0xad99aaaa9ba9a2a7U, 0xa2a09f9fa2b1a6a4U, 0xa4a697b2b2aab0b0U,
  0xad9b9faaaba59cb4U, 0x9a9c9b99b2b0ad9bU, 0xa4a0aa9795a7aba0U, 0x93aeaba4b69c9d96U,
  0xa0aea1a09b99b1a2U, 0xa9ae9aada592ad95U, 0xa7b1a79d9da5a2a1U, 0x9fb7b2a0b19caba2U,
  0x95b29f9697aca6b1U, 0xa99e9eafa097ad97U, 0xa5ab9d989c9caca7U, 0xa7abaeadad978898U,
  0xb599a19995b1a1b9U, 0x9facafaaa6ab9f99U, 0xaaa59ab2a7aab1b8U, 0x99b3a29ba8aebb96U,
  0xa0b2a9a3a5b2a5afU, 0xb0b098b49faba296U, 0x98ab9aa399a99eb1U, 0x93ae9b989d99bda6U,
  0x95aa9d9daaa69c99U, 0xb5b5abb09c9fb6acU, 0xa49f969aa59baea7U, 0xa3a8aea2abab9f91U,
  0x9f9aa899a2aea792U, 0xb8a595abaa9ca89dU, 0x9da5a2b4abb4b2adU, 0x96a8a1a8a0b29b96U,
  0xad99a7a097a59fabU, 0xa4a9a7b3a5adb59aU, 0x98b4abb3aeafaaacU, 0xa59ab1a8ae9dc3b0U,
  0xb19ca0ac9bafadb2U, 0xb9ae9fa9a79fa9acU, 0x96aaa9aea1b29aa6U, 0xb1aa9faf96a2b9a0U,
  0xaca3b2b695a9aba3U, 0x96b2aeae95ad8aaaU, 0xa3abaa9baeb4a7b2U, 0xa1b2a6b29ba1b0a3U,
  0x97b0b09eacb2a6a3U, 0xaca498acadacb195U, 0x9cb4a2999cb5a39fU, 0x9ea7b3ac9a9cbd95U,
  0x969fada29cb4a0bbU, 0xa8a6afb293a2a492U, 0xa3b19ba898a9ab9eU, 0x9495b49eaab0bba3U,
  0x95a5ac9aa7afafc6U, 0x988bbaa9a6b0b7a5U, 0xa496a2a59b97b3a2U, 0xaa8ea4b3b1b1ada8U,
  0xacb0a3a8b09fa9b9U, 0xa4ada2a2a0a9a6acU, 0xa1a2a796a4acb58eU, 0x92adabaea6a59c9dU,
  0x8eaca996a2aeacabU, 0xaea09ea1a8a7a599U, 0x9d9aa2af93aaaba1U, 0xa6a3a19d9faa9796U,
  0xa9a5a7ad9ca5b0b9U, 0x9aa3b3a5b19e91a4U, 0x939d9997a999acadU, 0xaf939db5a5b0afa6U,
  0x91a4989dae9cb59bU, 0x9f9999a3a1ac909bU, 0xa1ae9dae9ba7afa4U, 0xa0a3b59dabacb9a5U,
  0xa6a1a2929ea89794U, 0xa1949c94a7aea799U, 0xa197a6a0a2a0aba2U, 0x939aaca7acac93a1U,
  0x9598a1af91949aa5U, 0xa9a8a0ae9698919eU, 0x9f9496a0aa93afa9U, 0xaaae919799a2ab97U,
  0xabada7a6a89393aeU, 0xa0a7a9989ca693a4U, 0x93a2a4a8a19fa1a5U, 0x9fa79cab95a79cadU,
  0xa99e95a3a79b9394U, 0xaea5a19ea99c93a6U, 0x93989c91a894a3a1U, 0xa79d9992a2ab9fa2U,
  0xa7aaa9aea6a8ad92U, 0xab9fa19d939dae96U, 0x9caba7aaa099aba9U, 0x919b9d999da19d95U,
  0x98a19c9f93a294a8U, 0x91a9a09da5989a9dU, 0x9d97a5a19ba29aafU, 0xaba7a0aaa5939da8U,
  0x94a0adab91ada2a6U, 0x9592a4a5af969293U, 0x9d9595a89ba7a39cU, 0xa4aeafa9a092aa93U,
  0x95919a9499aba3a6U, 0x9da5a49aa899a899U, 0x949a9692a49ba5a9U, 0x9caa939aa6a0a5a8U,
  0xaaa8a69f959da99cU, 0xa8adac9a94ae97a5U, 0xa9a6a9a7a8aba1aeU, 0x9e9a9a9facaba399U,
  0xa8aaaaafaa99a3a9U, 0xa09bada5a79fac9fU, 0xa7a6a593a697aaa9U, 0x969b99aaa299aca5U,
  0x949d9ca7ae9ca0adU, 0x9baba2a7a19ba493U, 0xaf9ea8a3a5ab95a6U, 0x999f9a959ca1a098U,
  0x96919facaba3a592U, 0xad9aa19a9a95989fU, 0x98a296a69894a6adU, 0xa5aea6a7a1a7ad92U,
  0x9da09f999692acacU, 0x9398a59a9e9d92aaU, 0xaf9ba89cada8a1a5U, 0x9e979ea3adaea39eU,
  0x9ba59d939295a1a9U, 0xae98a8a1ada19aa9U, 0xa7a7a3a19aaea3aeU, 0x9a9fa5a096a1a0a0U,
  0xa69498aaa6ac9398U, 0xaf9aaeac91a79c91U, 0x9dac9faa9da7aba6U, 0xae9691a6ad99a597U,
  0xad94a7a29ba7acaaU, 0xafa69e99aba8afa1U, 0x93a69a9896a8a6acU, 0x9aa6a299a293adadU,
  0xa29ca29891a89799U, 0x9699a693aa939799U, 0xad919791a89bae99U, 0x9ba6a295a393a7abU,
  0x92ad929e969fa5abU, 0xa5a3a4ada8a19798U, 0x9aa09d93a9a69e93U, 0xac9aaea49696a8a0U,
  0x9da7adaa9c9ca4a5U, 0x9c9eae9996ab9fa8U, 0x9aa9919aa0969caeU, 0xa1a0999692af9da0U,
  0x959da298a293a1acU, 0xabab9ea89fa5979cU, 0xa69893979d9d9e9cU, 0xa99aa8aaa6a0ac94U,
  0x9fa39aa09ca59d94U, 0xa0ac9191a3ad9d95U, 0x96aa9fafac9a91abU, 0x94a8a7959d95a3acU,
  0x9c9399af9b99a4a0U, 0x92a99794a096a0aeU, 0xa9a1a7a89da991aaU, 0x99a4a1a49f9199acU,
  0x9b9d969493a5ab94U, 0xab9c98ae99aea0a4U, 0xabab93a7959b9ba8U, 0x99afa8a7af9395aaU,
  0xa8af9baaa39baa9dU, 0x9fa69a93a09ba2a4U, 0x9baeac939a9d9c96U, 0xa195ad9299979a9aU,
  0xa196a5a3a8969599U, 0xad959da4a5a594a5U, 0xa5a298a2ac95929dU, 0xa0a0ad979e9ca39fU,
  0xa9ad9fa3a39698acU, 0xadad94979c97a1a1U, 0x9ea796a09ba49c99U, 0x93af9faf9fa99c98U,
  0x989ca5979cafa69fU, 0x9baa95a9a69d98a0U, 0xa392a5a8adaca598U, 0x969da19f98a4aa9dU,
  0xa8a9a89ea99aa5afU, 0xafa29da7aaae9192U, 0xab9f92af9da2aea2U, 0xa69197a494ae949aU,
  0x9b9f9baea698acaeU, 0xa7a0aea992a0aca8U, 0xae94a5a19f9aa3a0U, 0x9f96a29b9f9e9d97U,
  0x919b9faea2a6a894U, 0xa9a59aa6a19595a2U, 0xa09da794af9aa8adU, 0x94a3a39e99a6a19dU,
  0xadaa96a79f9c91a2U, 0x97a49b98a39794a3U, 0xb09dab9bab98a7a3U, 0xa59ca7a19f9ba695U,
  0xb09ca0989396ad91U, 0xa1a3a79caa9e959eU, 0xb09ea799939c98aeU, 0xaaa4aba8a591a596U,
  0x96aea4aca6999699U, 0x939e9aae979da8a7U, 0xb1a9919ca39ba496U, 0x959daaaf99a1ae99U,
  0xae9d95949993a295U, 0xa8a29da0ae9b95a3U, 0xa3a9989797aaa199U, 0xaea295aaa69aa6aaU,
  0xa996af9e98aa99afU, 0x96aeac9fa6a4a69fU, 0xa19faf91a598a7aeU, 0xa0aaa19ba5979d9aU,
  0xa99ca292a5ab95a4U, 0xa5a5a1a89b9e9da3U, 0x95af97a49f97a99bU, 0x9f94929b92ae9bacU,
  0x949393a1929d9aafU, 0x9ea99eaf98a4ad96U, 0x9e99a7a3a89ba291U, 0x9293acaaa5a1a7a6U,
  0xae9baaa5989fa9a3U, 0xa092989295939a92U, 0x9e93a1aa9aafadaeU, 0xaca5aca8a991959fU,
  0xa19fa3a69a9ba8abU, 0xa8aaac92a2959d93U, 0xa8a395aca6ad98a6U, 0x9698a39caca2a4aeU,
  0x97a2a4a9ad94afaaU, 0x93a294aea5afafa6U, 0xa7929fa0ae9c9ea8U, 0xadaeab99a6a8aa99U,
  0x969baba1a594a9a4U, 0xaeac9f9ca29d99aaU, 0xb09eaca9a1a3aca4U, 0x999799a9a2a5a9a9U,
  0xb19692a5ae95a19dU, 0x95a4a59fa5a89ca0U, 0xa09496949cae9ba8U, 0x91969393a09fa89aU,
  0xb1aa9e9c9296a9a4U, 0xa1a19197aa91969fU, 0xad98a195a595989fU, 0xa9a4ac9b97a9a4aaU,
  0x95a2a9a89ba79eaeU, 0xaf9697ab989c98a3U, 0xaea8a6a69996a997U, 0xaca5a7aca4a69d9cU,
  0xb0a4a1979b99a4adU, 0x9192a7ada69e93afU, 0x9ea8ae9f929caaadU, 0xa6a697939595979dU,
  0xbea1948f92ab97a8U, 0xa79cb0969faea796U, 0xa2b3a2a8acb09fb1U, 0xb6a6a3a5a29ba9aeU,
  0x9aa5a87e96a99aa0U, 0x9aab969eacac9aa4U, 0xaca3949bad9fb49bU, 0xa58d9896a59ab4b2U,
  0xafa1ab9ab1a49aa0U, 0xac94b39c9ba6b1a0U, 0xb3ad9ca49c9bb3a4U, 0x9ca69faca6b2acaeU,
  0x98989a9fa7b4b59aU, 0xb3a5aea7a5a1adb6U, 0x9d9aaa9db1a9a6afU, 0x9ab0aca3a2b4aba0U,
  0x9da8a796969cad97U, 0xa5aea8abb0a3afa1U, 0xa398a7af9ba999b2U, 0xa4a7b4a0b2b4b5aeU,
  0x9e9e989e9baaaeb1U, 0xb29cb7a3979cb098U, 0xb6ac99ab9e9e9b93U, 0xb596ab96a19b989cU,
  0xa4a59ca9afb19badU, 0xb2a1ac95b3adaaa2U, 0xada4ae9ab0afb3adU, 0x9a9dacacadaf9e99U,
  0xa695a6a5a7b2a5a9U, 0xa4a99ea5aeaeb9aeU, 0xb4afb0afb497a2a3U, 0xabaeaf9c969eafa7U,
  0xa7b2999fa1a2b4aaU, 0xafa99a9da0b2a1aaU, 0xb39eafa0a6b0aab2U, 0xb29eada6a1aaa49dU,
  0xa4a2adb09a9eb0a3U, 0xb1a6b39d9ba0aea3U, 0x9bacaaa6ac99a196U, 0xa9a199ae9fa6a1b0U,
  0xb79fa2adb4a0adb2U, 0xad9aaf9c9c9ca2adU, 0xab9c97a99fa7a49aU, 0xa69db49bacabb0aeU,
  0xb3aaa5b6a59ba4a6U, 0xa8a8aa9f9ea79ba8U, 0xa99893a2b297a0a2U, 0xa1afb6a3b3b2a2a7U,
  0xb29ea5b2aca19eabU, 0xa6b2b3989babb29fU, 0xa1ab96a79eb2b1b2U, 0x9b9eaeaaa8979fb2U,
  0xb1a092ae9c9db4a0U, 0xb1a7a4b8a5a8a09aU, 0xae9ba5abaaa5a49dU, 0xb79aa2ac9698b3a7U,
  0xa1aba8b6aca8ac98U, 0xa6a3a4a99ca1a7abU, 0xaaa196ab999ca29bU, 0xb7a0ada6a5b2a9b2U,
  0xb2af9cafa9a7989dU, 0xb7a0b59db0b5a5aeU, 0xa2aeac9ab3a0a4b1U, 0xafaeb1b4b19c96b6U,
  0x9a98a39ca3b3ada4U, 0xaaa7a4959db0a79eU, 0xa89baf9ea29fa296U, 0xb4b3a0a9afa7a1adU,
  0xa6a0a89b9ea4ac9dU, 0xadb4b39aa7aeb19eU, 0xb0acaba99bb3af97U, 0xae9fa9a99da69ca6U,
  0xaaadaa9bacb3a999U, 0xa697afa4aeb2afb0U, 0xae9a9ca5a4ae9baeU, 0xa7abb2ada7ad9aa6U,
  0xa19fa2a79aada8a2U, 0xb3a3acb1aea3a89fU, 0xb6a6a5ada8aaa5afU, 0x9eb0acaf96b2a0afU,
  0xb2a49db99cb1ae9dU, 0x9da59a99abb09aa6U, 0xa0a8a0a1aca5a19cU, 0xa1a2a0b09d9fa9a8U,
  0xa3ab96b1b2b0a9b0U, 0x9eb09ca9b4a6adb0U, 0xb1b39eb0acafa19cU, 0xadb0b3baad9aafaeU,
  0x9ca7a8a2a4a39e9bU, 0xb199b68fa39c9e9dU, 0x99afaa9a95a9acafU, 0x9aa1aaa99494acb0U,
  0xa0a8b09bac9aa6a7U, 0xa89da1b4b1938ca1U, 0x9a9ea59a94a69f9cU, 0xaaaf9fa29798b697U,
  0xa59fa79ca5a0a3aeU, 0xb3b1b1b2a0aab0acU, 0xafa5a3aa9799a295U, 0xb39e97b0a695b59fU,
  0xa296a4a59ca1afaaU, 0xa2a997aba7a4aca0U, 0x9e98a6a0a69b99a2U, 0x9bb1a0a9b1af9ea6U,
  0x9bb1ae9fa9a79a97U, 0xa8b29cac9d9fb89aU, 0x989e95a79697af96U, 0xa89891af99acb69eU,
  0x95a39ca694a4a19eU, 0x96a6a1b49a98ac99U, 0xac9c96b0a3a898b6U, 0xafaf909da59ca6a3U,
  0xa69fa4ae9aa2b2a0U, 0xa29a98b3aaaab8acU, 0xaf9ca3a9a1acafb0U, 0xa99798abb3b196b2U,
  0xa99ba7a8989ca8a0U, 0x8e99959ea2acabb1U, 0xb99d94aaa1a297a5U, 0x9eb6a699a99ab9baU,
  0xac9694acada29ca6U, 0xb0a1afb2a8a7c9a1U, 0xaf9ea0ada0af9a9cU, 0xacb398a7aa9c96a5U,
  0xb9afadb1a09c9aa3U, 0xa49a9d98acb49daeU, 0xb395a69790a7b2b6U, 0xab9aa09aa5a7c1a0U,
  0xb7969fafaeaea999U, 0xb19ea49f9cada6a0U, 0xb09eaf9895b3b3b6U, 0x9c9d9fabb8b0a9b4U,
  0xa1a6a9a8a79c9aaeU, 0xb5b1b69899aaa2baU, 0xaca8aab4a3a3a8a9U, 0xa29aa3b3aaa2a1a5U,
  0x989494a0a1aeb294U, 0xb8ae9aa5a2a7a99bU, 0xa799aba5a09c9da8U, 0x929faba2b4ac9eb0U,
  0xa9adada999b3b1b4U, 0xaf9aa9b2b2a79ba6U, 0xa197aea89db19ca9U, 0xa99ba3a6a0a3caafU,
  0xaeaca8b5aaafb5acU, 0xaaacaa9ca897afadU, 0x95a995a59aa9a4bdU, 0xab94b3a79e9ba5abU,
  0x9e99acb1aab4a8acU, 0x94bbaa98a6ac87b3U, 0xad9ba29da3969aa9U, 0xa6b3b09faea79f99U,
  0xa5b49ea9a899a4b0U, 0xb19aadada9a8a1a7U, 0xa8afa796a0a8a6acU, 0x9fabab9aa3b0b0a3U,
  0x9d96a9a5a197b4b1U, 0x9b91b4b39a9dafa2U, 0xaaa0ada9a1a3a0a7U, 0xab98a299aeb4b19aU,
  0x9c9897af9ca2abc6U, 0x9c92a19aaeb0a1aaU, 0xaaa99ea8a6aab1a1U, 0xb98db9b696a1a3a2U,
  0x9fa0abb397a2a9beU, 0xa9a8a2b2aeb4a9a4U, 0xb695949997ab9ca7U, 0x99a8b1b3ac999b9cU,
  0x9da0999da1a3b0a7U, 0xb399a5adb09bc0a6U, 0xa8a1a1a9a9aeaca9U, 0xbf9eb4a498a597b2U,
  0xa39bafa498a1a4c5U, 0xaa8fac9ca0b39b93U, 0xb0a99ca1a6a4a4b1U, 0xb09ba2a1ac9ab7a3U,
  0x91a497a9a09bb294U, 0x98a8a8b1aaa3a5b4U, 0xaeafa49291a9a9bdU, 0x9395a3ad9ba9aba3U,
  0x969894999eab9e9fU, 0x92a39595a89aa6adU, 0xa0a294afaa99ab97U, 0xab9693a3a9a1aea4U,
  0x98a3a095919c9ea6U, 0x9a94a694a49ea8a8U, 0x969b9e9ba8a5a298U, 0x9c9493a49fab9fa9U,
  0xae979da79698ac98U, 0xa6aa9babababaf9dU, 0x9caa9f92a4acad9bU, 0x97a7a09e979e94a3U,
  0x9899a7a196aba4adU, 0x9ea29ba2919ca7adU, 0x9f97969faaab9397U, 0xaea89aafa492a995U,
  0xa0a2a8ab969797a6U, 0x9da3a5a79e95a496U, 0x9e9299ada792aaa1U, 0x9f999eaea0ab9ba0U,
  0x9c98ad9d93a09ea9U, 0x969da1a9a695959dU, 0x9592a89da3999a9bU, 0x97a69d9b94a19bafU,
  0xa89d979c9aaaaea2U, 0xa89ea0a5a0a59491U, 0xa9979d969c9ba6a6U, 0x95ab9ba5929eaf94U,
  0xa3a4ababaa979b9cU, 0xa1a99d9e9d9194a3U, 0xabadaea69c999493U, 0x97aba2a098a6a693U,
  0xaea0adaca199adacU, 0xaaa1aba1a0949192U, 0xa3ac9893a79a9f97U, 0x91ac97ad9b9a979eU,
  0x979b929caf959c95U, 0x9aac96ac9aaaa0a3U, 0xa69396a29a91aca7U, 0x99ae9aa5a09f95aeU,
  0xaea0a5afa297aba4U, 0xaf9796ac9395a3a5U, 0xaea3919da79fa4aaU, 0x9897a1a8afa698a1U,
  0xa6a498a8ac96a2a2U, 0x969dab9aad9896abU, 0xafa09da592a19d94U, 0xaeadafa7a9ab9eafU,
  0xa3a29b9291a5a49dU, 0x9aaa969599aaa599U, 0xabad9da394a397a0U, 0x98a591a6aaa494a7U,
  0x9e9d93af9c939298U, 0x9b929ea4a6aaabafU, 0xa6979baea69996a3U, 0xa2a49992aba09ea4U,
  0x9ea09e96989c97a7U, 0x9fa7a0ac97a1a9adU, 0x9593a6a3aaa9aa95U, 0x99a4ada29b9ca7a8U,
  0xa6a1af929e92a5a4U, 0x9299ae93a2a59c97U, 0xa5aaa9a9a395ada9U, 0x9a9ba293a792a793U,
  0x9a93a9a597979aa1U, 0xaa92969694a4aa9fU, 0xada3a3989e979aabU, 0xa09da59aa2a496a0U,
  0x969893a7a695a39cU, 0x999ca2a79294a6afU, 0xae9eaca09e95ac95U, 0xab99aca9989a91acU,
  0x9caea7afa6a79caaU, 0xa0a893aea498a9a5U, 0xa4afa891929ea29cU, 0xa2a89694a6aea49eU,
  0x9793a4ab95929ea4U, 0x9a9d9995aa99ad92U, 0x91a99f93aca69da8U, 0x9c92ada5afa697a4U,
  0x9e94aeaea999ada1U, 0x959eaea99da1ada9U, 0x9198a99a9ea497a6U, 0xa5a198aaa8939197U,
  0x9a96a09a9e9599aaU, 0x9e9a979da6a093aaU, 0xadac98a39b979e97U, 0xa7ada6a4af9eaeabU,
  0xa6a1a7969aa29fa2U, 0x9e9aae93a0a595a4U, 0x9691a79aa5a79ea0U, 0x94afa6a5a3a5a9a3U,
  0xa4a9a393a5a09da7U, 0xaca49298a8959cafU, 0x98afa399ae96a9a3U, 0xaba2959d93a893a4U,
  0xad9ba89baa9da3a0U, 0x9997a6989aa0abacU, 0x9f9895a69daca7acU, 0xafaaa59995a4aca5U,
  0x9b92acaa999d94a6U, 0xa7989ca8ab9b9e9eU, 0x93a9959aa6979698U, 0x9dad9daeaaa79fabU,
  0x98a0a99b95a9a2a2U, 0xaba493939c96a39eU, 0xa4a79b9491af9c9aU, 0xae99979f91aaa1a2U,
  0xa097a0aea2a895aaU, 0xa6a3aeaf95aca5a1U, 0xa5ad9f9497a2aca8U, 0xa1a89aa6a79baca5U,
  0x9995a2a6ab9193a3U, 0x9e9aadab97a695adU, 0xa1a09e929195a99fU, 0xada3a6afadae9ca4U,
  0xa8a99a9697a19da3U, 0x9f9fa194a5a7a2adU, 0xac94a191a1afaea6U, 0x98aa97a99bae9f92U,
  0xada29da699a094acU, 0x959bae969da191aaU, 0x989ea294999ea8a2U, 0xada6a8a699afaaa7U,
  0x97a89da39a929492U, 0x949c93abab989dafU, 0x98ad98989eaa9facU, 0xa7a6ababa4989896U,
  0x9ea4aa9a98a59a97U, 0x9f999baeaba997a3U, 0x95a698a29e9b9599U, 0xa694ad95a6a59cabU,
  0xaa9e94ae9da99aacU, 0xaba8a6a3a99ba5aeU, 0x979a9ea39992a5a4U, 0xaba794a5afa89592U,
  0xa695939b97adaca4U, 0xa5979da8a195a0acU, 0xae9996ab9d91afa5U, 0xa6a499acae9fa9a5U,
  0xacadadaea1969a91U, 0xaf9aab9f9691af98U, 0x9591af97a692ae97U, 0xae9f92949e9daaa2U,
  0x9da696999fa6a7a6U, 0x95a7aaa9929396a4U, 0x98a5ad9297abad99U, 0x9b9e9297a49f9c9aU,
  0x9ca691999e97af9fU, 0xaaa5a893a397ad9bU, 0xaa9b95a2a89892a4U, 0x9c9d9b959e999a9dU,
  0xa4a6a29491979faaU, 0x969a989e98abafadU, 0x9b9494a599afa49eU, 0xa8ababa0a1a5a69aU,
  0xa9aea795989da5acU, 0x9592ab9ea097ac92U, 0xacaaa79d93a6a2a0U, 0x9798aaa1adaaa1a6U,
  0x96ada1979e9393a0U, 0xa5ae95a894ac93a4U, 0x9aa4aa99aaab99a0U, 0xa1a9aa9893ad9bafU,
  0x95a1a392ab9b9fa6U, 0xa495a3aea4979295U, 0xababa7aaa69ead9fU, 0xa09aaa95afa1a09bU,
  0xb0a9ac9a9eaba498U, 0x9d97afa891a5929aU, 0x9a929398969397a0U, 0x9791a19493a5a695U,
  0xb1ac9ea8a197a8a2U, 0x93a9999a9f9f929bU, 0xae9c969f9b999794U, 0xa7ad97a9a69fadacU,
  0xaaa1a891a2ae9dacU, 0xa1a29495a4a4aea0U, 0xa499af9ba5aa9fa1U, 0x95979ca9a89996aeU,
  0xbbb298a6b0a0a2acU, 0xa49aa3a4a09fb2adU, 0xac9ea798ac9cb5afU, 0xaaa08dacaca2a8adU,
  0xb1a5a87fada59d9eU, 0x9ca199a9a7b5a1acU, 0xa5a8b28c99ac9b9dU, 0xb1a7a99db69da6aeU,
  0x98a0a298b19ab398U, 0xac9d9ba8a19bac9fU, 0x9fabae92999aafb2U, 0xa69ab3b19aa8b4aaU,
  0xa7a69c99a8b099aeU, 0x9aa4b1a3a0b5b6a0U, 0x9fb3a79ea8b5a09dU, 0xafa39e9d9fb0b2b1U,
  0xb2aba9a5a599a9afU, 0xa5a8aa9ea498af9cU, 0x9f98a09aafaa9b9dU, 0xa096a1b1ae9aa8a2U,
  0x9db0a3a1ac9daf9eU, 0xa3a5afa3a1a4afb5U, 0x9eb1a996aeaf9dabU, 0xb2b4b1aba5a3b1a6U,
  0xb3b1b2a99cafb3aaU, 0xb3b4a09a9eb4aba4U, 0x98b2abad9fabacacU, 0xa7aca8abb29aa4b2U,
  0xa39faeb39e97ada4U, 0x9da3a7a19f9dabb0U, 0xa6b3a4abb1a8a19bU, 0xa0a3b1afaaada4a5U,
  0x98aea6b3ab9b9fa6U, 0xa59d9aa2a0a8a9a3U, 0xaa9ea3a6a0b2af9bU, 0xa9a19ba3a1aaaaa7U,
  0x9eb2ad95a8b1aba1U, 0xac99b59e999bad9bU, 0xa9ac9b9aa8a79d94U, 0x9db19dafa4a4aea1U,
  0xb7a9a7aaa9a3b1a9U, 0xa3aca8a0989ebaa2U, 0xa1acada4a7a798a0U, 0xa9a999969e9faa9eU,
  0xaf9db0b5b4a7b398U, 0xa4a5a5a3aca1b69aU, 0xa997abba98aea5a3U, 0xa4a0a89daea19cb1U,
  0xaa9cb1a6a2aeababU, 0xa49babb0b1a1b6b0U, 0x98b2b19a9d9eb19bU, 0x9d97b4a3b39d98b6U,
  0xb598aba69ba89eb1U, 0xa3b7a3baa9acad98U, 0xa1aba3a9a7a3a2b2U, 0xa3a9a19d9eafb0adU,
  0xa4b3a5a6aeb2a29dU, 0xaca0a4aba5a8a19fU, 0x9aa49b9aada699acU, 0xa3adada6b0b09fa7U,
  0xa499ada8b09ba898U, 0xa3b3b6b39fac9bb4U, 0x9ca695b19ea3a0a5U, 0x9aa6a3999baaa5aaU,
  0xb5ab97aaa8b3a1b1U, 0x9ca8a2a0b0b1a9a9U, 0xa7b3ada3a4a6a2a8U, 0xa6b09d9fab969fa0U,
  0x9ca2a999989aa298U, 0xa9a6aea2a6a2b3b4U, 0x9f96a6a7a5a3b0b4U, 0xac9bb3b5a997a1a5U,
  0xaab19a9cad9fa8a6U, 0xacb2b0b0a1aba0a9U, 0xb3ad9db9a197a7adU, 0xa7b0a0b1b3a8a099U,
  0xae97b0a0a7a29eb7U, 0xada09ba09caab3b2U, 0xadacaa9babab9e9dU, 0x9ca0b3a497afaaa7U,
  0xb19da1b5aaa8a4adU, 0xb5a4ab98a7b4ada9U, 0xa9a4a7a5b598a3a7U, 0xabafaba7b4aab09eU,
  0x9cb19f9fa2ac9f9eU, 0x9da0aab0a69ba6a4U, 0xa6b19fabb69aa7afU, 0xa59ca6aea099b5adU,
  0xa8aab0a0ac9fa2aaU, 0xb1ad9fa89dafb1a3U, 0xa7aea0a1aaaaa097U, 0x9d91b3a0a891ab96U,
  0xa09d979c9eb39ea9U, 0x9aa8a6989d999f95U, 0x9d97b29dacb099a3U, 0xaca0a7adb0afa8a3U,
  0xb299999fada5a0aeU, 0xb6a9b3ab99a4beafU, 0xa39698a193a9b2a5U, 0xb1a8a39fa8a0a69aU,
  0xa7a6aaaaaea6a592U, 0xaca5aa9ba1a69ca9U, 0xb2aca2a498979ab7U, 0xa4ada59f9fa89a9fU,
  0x91a99db29d9fa0acU, 0xb1b1ac9cac9aab96U, 0x8d9aacadab9ea998U, 0x9fad97a096a6b5aaU,
  0xababa0b3a1a29f9cU, 0x969bb0a996acbb8dU, 0xa79ea1b9a7aab0a5U, 0xa89ba2aa9aa2a999U,
  0xb0ada7a39f9f999dU, 0x9aaa9aa7a5a0be9cU, 0xada8a09aa899aba2U, 0x969da0a7b3a08a98U,
  0xa3a2a8ada3a99a93U, 0x93b0959dafafadacU, 0xb09897a69da1a1a3U, 0xa1b1a59ba9b0b3b2U,
  0xa9a8a3b0ada79ebcU, 0xabb3aea3b1b3b7b0U, 0xbdb1abb1b1999db2U, 0xa8ab9fb5b0b0869cU,
  0xa2adb2aea3a9aeadU, 0x97aaa3b2aa9e999bU, 0xa1aa9dab9ba1b3b8U, 0xafb199a9aaa4b9a8U,
  0xa5a09baf9f99aba5U, 0xa7afa6a2a2aca297U, 0xa9a69bb0afa79ea9U, 0x95aea9aeb3a6a891U,
  0x93ae99a19ea1a098U, 0xb0a3a6989c9ab5a1U, 0x98aeb39bae99aaabU, 0xa49eaf9bb498b28fU,
  0xa0b1ab9cb09ba7a8U, 0x9ea0a6a3b1ada9a4U, 0xb1a5ada4a7aaa8bbU, 0x9693a9b199aca196U,
  0xa1989c9aa89dafa7U, 0xa391ad9aa09da997U, 0x9ba0959ca4b4b2a2U, 0xa3a1a7a8b1a0ba9eU,
  0xa3a5a7a4abab9aabU, 0xaa98a2b19cafb6a0U, 0x8ea2b0afa09daaabU, 0xaca9a99c9fa4b3adU,
  0x9096aeaf94a7b099U, 0x8fb5ada496ad9da4U, 0xadaaaba0a397b3a9U, 0xbaa0a8b4a897a4aaU,
  0xa19f9b9c97b4b3a6U, 0x9ea6a49ea79eb4abU, 0xa19c979c9ca6b0a9U, 0x9fa0a5a4aea4aba4U,
  0x9ea3a99ba9a197b8U, 0x93a8a9a493a09da6U, 0x9eb7a69f99aca9a4U, 0xa795a8ab9ba6b6a9U,
  0x9a9497aca399a4b4U, 0x9e7fa9aba6aab19dU, 0x959eaa99a1aca7a4U, 0xad98ac9b9eafb3b1U,
  0x9f98a4aeaca199b1U, 0xb191b0a4a5adb0abU, 0x9ca6a1a3a0af9da8U, 0x9bae9d98adb1a89cU,
  0xabb3a29da69ca9b8U, 0xa0a4afa0a3a8b297U, 0x99afada1a5a2a591U, 0xbaa7a2a298aaaaa2U,
  0x8e9ba593a8acb1a8U, 0xaca7b6a9abac8fa3U, 0xa6b29bada4afacabU, 0x99a2afa9af9dac96U,
  0x999ba49daba7b093U, 0xa09caf9b9aac9e94U, 0xa8afa398abae9da5U, 0x8a97aeae94aeac9bU,
  0xa49ca19e9fb3a8b1U, 0x95aeafb3b0ac9997U, 0xa5afa1a5aeb0b2b2U, 0xb2ac8ea5a899c398U,
  0xb1abab82b3a29ea2U, 0xa297acb39eb8a0b1U, 0x97aba48ab0a1a99dU, 0xb4a0a0b5b1b2a6a6U,
  0xa29d959fa799a69aU, 0xa9989e96b2b1aaaaU, 0x9bb19b8bb0a4a4a2U, 0xaa8fa0a8b49ea19aU,
  0xafaaa9a5ab9caca6U, 0xaf96a1a3a29ab1b3U, 0xa5b09793b39ba895U, 0xb5a19997a1a5aea2U,
  0xb49f95a9afacb292U, 0xafaaa0ab989fa7a7U, 0xa49ca7a4a1b1a39dU, 0xb49fa597ae9bb0a3U,
  0xadad9e969aa0a7aaU, 0xa8a0a1b2a2a3a9a8U, 0xa3a89698a199a5acU, 0xafb4a3a4a6aaa3b6U,
  0xa59798af9b9db5aaU, 0xa9b0a7aba19a9aaeU, 0xad9dad999a97b59cU, 0xa4a2adacac97a5a8U,
  0xa0a498aa97a8b3a4U, 0xa4a3a6aeaca2b2aeU, 0x9cb1a899b6a6a199U, 0xa09e9ea5aba9ab9dU,
  0xac9cafafae9cb0a7U, 0xb7a5aeaba1b3ad9fU, 0x9aaca89dad9faaabU, 0xa096a2a5aa97bba5U,
  0x9b9a9c9baba89d97U, 0xa1a2a6a799a6a1a2U, 0x9aa6b09db49b9db1U, 0x99aeb29ab4a8b7b3U,
  0xa296a4a7b0999f97U, 0xb5b3b3a5aaa1b8aaU, 0xa499a7a9a1b199b6U, 0xb6ac9fa19cb1baa1U,
  0xaba69bb6a599ab9bU, 0xb3a9a4a49c99aca9U, 0xa09f9fb2a5a39ca1U, 0xb4a2a1a39f99a8b2U,
  0xac96a7a9a79dadaeU, 0xa69b999aada09bb2U, 0xa39c9a99b4af9ba8U, 0xa9a8a098aab4a2b3U,
  0x9da3a0abb198a8abU, 0xa2ad9bbba59fb8b3U, 0x9f9b9bb2af9db0b5U, 0xa4a59fb2a7a0a6a8U,
  0xa5b4a5a3aea6afa6U, 0xa7acb5a79eb49cb6U, 0xa39e9fa098b0a9aeU, 0xabaaa3989cada7aaU,
  0xa997a9abb198a7b2U, 0xaaa6b39e9ea8adb5U, 0xac99b0b6a8ad9dabU, 0x9cb3a19e9899a7b1U,
  0xa498a0a3989ba69fU, 0xa8b0aeabb1a5a3acU, 0xa9afa5a19ba69cacU, 0xb4b8b49599aab9a4U,
  0xa2aaaf9a9bb09ca3U, 0xb29aae9aa2aa9da6U, 0xb2a6a4ab9eb2a7a6U, 0xafa099a8a9a89ca4U,
  0xa3a3b2a8b09d9c9eU, 0xa1969f9baca2aaa6U, 0xa5b0a9a0a3a8a5b3U, 0xa29faeb997a79fa9U,
  0x9ab0a8b69eb2aab2U, 0xafb2a1a7acaa9db0U, 0xada8aaa9a9acb1a9U, 0xb1a1a49fa6a2a3b1U,
  0x9eabae9c999ea5abU, 0xa7a4b3a1b3acb09dU, 0xaaa6a4acacb0a4a9U, 0x9fb79eada29ea999U,
  0xb69d9e9ea9b29ca4U, 0x9b9cb3a1a0b3a99aU, 0xa2a3b2a7b29eb0a1U, 0xb3a2b09e9ea4a79eU,
  0xa39b9fbca69c9dabU, 0xa49caf939db1afb3U, 0xb2b1b19693b29baeU, 0xb2aeb49bb09792aaU,
  0xa8afaf9a959da3a1U, 0xaaaab19a96a78ea1U, 0xb3afa8a3a8a8b1a3U, 0xb1a5a8b3969cad9eU,
  0xa7a49a9ba2a6b495U, 0xaea898a6a6a2b2a6U, 0xacafb19f9aada39dU, 0xa5b2a9b3a099a598U,
  0x98b4a2b1a1a8a8a3U, 0xb59b9c9cb1af949fU, 0xa897acb2a8999fa8U, 0xa8a5b19d9d97af92U,
  0xa1a89c9fa6a4a79fU, 0x9fb7a8b2aa9bb198U, 0x9bada29b98a49e9aU, 0x98a1ab9d9b9eb8aaU,
  0xa9afb1a49eaab3b6U, 0xa2b0aeb0a2b1b299U, 0xb5a5a4b5ac999ea7U, 0x99a899b699a6a5a6U,
  0xa6b0b3a7b09eaab4U, 0xa6ada1b4b2a6b79aU, 0xada09b99acb2b3a3U, 0x989d9e9ea7b29a9dU,
  0x9898af9796acb5afU, 0x93a3a2b2a3ab9599U, 0xa5a2afb6ac9aa9b1U, 0xa0a3af9a9fa6a8b1U,
  0xa7abaaab9798b2a8U, 0xb3a6b3b19aa5b7abU, 0x9fb3aba3ab9cabaeU, 0x989ab2a59c9f92aaU,
  0xb19f969fa8a899b6U, 0x90aaaaa1b0afad9dU, 0x9aa8b09da1b19cc1U, 0xa8b19faba7a4b7a2U,
  0xa29daab59e9ea8acU, 0xaeb2a7b4a4a0b098U, 0xac99adb298a7b0aeU, 0x9fa8aea2adaabc99U,
  0x91aa9fa69198a59eU, 0xb6a5b7999faca6a5U, 0xb1b1aaaeaaa4acb0U, 0x9facb999a1a4a496U,
  0xabaeaea9a8989ca6U, 0xa5b19da6a5aba990U, 0xb4b1aa9ca3a2adadU, 0xa7ab9f9fa0a5aa9eU,
  0xa0b198a69fac9cb8U, 0x9e9a9fb2a49ea095U, 0xa8ab9ea89eae98b6U, 0xb4a7b3a8b09ec9a1U,
  0xac969fb1a69aaeb5U, 0xb3a4b19f9f96aea8U, 0x8a98ae9e92aba8a2U, 0x9f9dad9aac9cb6a9U,
  0xa396a7a0a9aaa298U, 0x96a7a499999490adU, 0x9eb1af9fa4aeab9dU, 0xb3a6b39ba2a1a89dU,
  0x919998ac90a59ab0U, 0x9892b3a49a97b0a4U, 0x96a99cb1a498a3a5U, 0xac91a59d9f9fa599U,
  0x93b09faaaaada7baU, 0x9999b0a999acb1a9U, 0x9aaaa4a4a9a4b4b1U, 0x94a0b3afabafba9fU,
  0xa6aa98a9aaa6adbeU, 0x9781a7a1aab2b995U, 0xa2a5adaeac9da8a3U, 0xae8f9fa79b96b3a3U,
  0xaeaf999da0a8a7b4U, 0xb2ac9e9a9eafaba7U, 0xada5a394979ea29dU, 0x93b1aea79fa39c9dU,
  0x94a1ab9e96b3b1a4U, 0xb99da7a9a196a29cU, 0x98aba6a6a1b49e95U, 0xadada5b497a4a2adU,
  0xa89eb5aea397a9aaU, 0xaf8fb79da8a48fa1U, 0xb1b19fadaba1a5b5U, 0x9b9db5b1a2a1b69cU,
  0x909aa890a0a2a893U, 0x919fa0a19fa7a29dU, 0xa29695aba4aeadb0U, 0xa597a3b19798af9bU,
  0xab98a0989dafa0a8U, 0x95a69aa3aab0a8a0U, 0x96a4ab9f9697acb3U, 0xb0a097afa7a7b59aU,
  0x979ea17c9a9d9d96U, 0x9da595aab0b5a79eU, 0xb3adaf8eafa6a3b3U, 0xb78da1b1a3a0b0a8U,
  0xa2a5979ca5a79a9fU, 0x9e979dada0aeb39eU, 0x969fada2b29ba1a8U, 0xb6a39aa899ad9caaU,
  0x9da4aaa3aaa1b396U, 0xb3969eafaab2b7a3U, 0xa7ada49e9f9dadabU, 0xb6a29fa1a7a1b2b4U,
  0xa098af90aaa7a797U, 0xb0a4aca89aa9a9afU, 0xb2af9998a5a799a9U, 0xa5b1a7a4a2b4b09bU,
  0xa4b0a2a49dac999bU, 0xb4b4b1bab49a9fb0U, 0x9cb1a1aa9aaca399U, 0xada69a96a4a9979aU,
  0x9bafb09fb098b0b1U, 0xacaea194aaa5b6afU, 0xa0ad94ab979e9fa1U, 0x9ba7b2b299aba8b1U,
  0x9d98afa997ac9b9fU, 0xa1a2a6a9a69ab4aaU, 0xaeafa8ab9fadafa8U, 0xb7b1b3a398b0aba1U,
  0x99ac99af9b9ab09fU, 0xb4a0b7a1aaa39da8U, 0x9ea699a5a0a7a799U, 0xa796aa9ea3a9a19cU,
  0xa19da9949fa2b098U, 0xb19fb29a9e9f9798U, 0x9aa6a7b49faaa2b1U, 0x9da89999a6a2a1b3U,
  0xa8a8ada89db49ba6U, 0xb29daa99a29ab1a3U, 0xadafa8aea49797b5U, 0xb6a4af98a0aea5b7U,
  0x98acadb59db2b199U, 0xadb3b1a7a6a4b4a9U, 0x9fa0a59eafa9ab9bU, 0xa9aab4a9b09b9da1U,
  0xa1ab9ba7a697ad97U, 0xb6a0a4b2a0a2b19aU, 0xacb0b1999bacb2a8U, 0xa89f9e95aaaca9aaU,
  0x9daa9fb59998a29fU, 0xacb0aaa5a998a7b3U, 0x9aa3a9a8a3b1999fU, 0xa5aba4a4b3b5b6b1U,
  0xb1a4a6b29bb3ad99U, 0xacb3a99e9eaca29eU, 0xaba1a9a7b59ba7a9U, 0xa7b5aa9998aa9ca3U,
  0xb2afa2a6afada398U, 0xa0a5a2a89aa8a4a7U, 0xb6a794b0b49b9da9U, 0x9ab4b0af9bb2a7adU,
  0xa8b1a699989fa5a7U, 0xb7aea1adabaca6aeU, 0xa6aba1b6b1ada09cU, 0xa9a1a0afb1aab6a8U,
  0xa8a3a7acb09ab4a8U, 0xabb0afa1aa9ca9b7U, 0xa89796b1b6a8b4a7U, 0xabb3a8b59c97a398U,
  0xb0a3a2afac98a49cU, 0xb4acb1a2a39bb1acU, 0xb2afa8adafb3a89eU, 0x9fa8a1a3aaa69dacU,
  0x9999a5b39899b0a3U, 0xa1ad9dabb1a7979eU, 0xaaabab9da39ab2a3U, 0xb09f9f9aa6b09eabU,
  0xaca194aaa6b3b497U, 0xa39eb7a9b39da8a7U, 0xa49dabbd97a6b39fU, 0xac9fafb59bb3a5b2U,
  0xa3ada3bb9cb3b3adU, 0xaf9ea2aa9ca99d9bU, 0xb0a893a49aa6a99aU, 0xadb69bb69d99a7adU,
  0x9a9fafa5a5a6b1afU, 0xb6b0b08fa4aeb0a2U, 0xa6a09cb1a6a49fa2U, 0xa2a5a3aead9aaea8U,
  0x9c99a699aaa7a9a5U, 0xa5a4a0a4aa939196U, 0xa3a5b0b19c9aac9dU, 0x9bad9ca0ac9e9c98U,
  0xa0b19db29fa99fa6U, 0xb5b2b1b2b0a0c2b2U, 0xa4a9a89da5af9ca3U, 0xb6999cb1a9a29d92U,
  0x99a0a99799a1a8a2U, 0xaeb392a4a6999fa8U, 0x9da59ab6a7a3b1b1U, 0xabb593a8a8ada9acU,
  0xa4a89bb49e9798b2U, 0xa6a293aaaba7b1a4U, 0x989aa2a692aea39bU, 0x95a3a8b59ba5b6a1U,
  0xa0ad99a7999e9da8U, 0xab989b9e9c9ab1a6U, 0xb197b1b49ab1b3b5U, 0xa1b18fa69faeba9cU,
  0xb59da49a989bb1b4U, 0xb0b4aba7ada7c5a5U, 0xab969c9daba8adb2U, 0xa9a098af9ca9919eU,
  0xa79a9ea9aaaaa79bU, 0xaa97aead9ea99da4U, 0xa8ac97b49bb1a5a4U, 0x929eadb3aea5bba5U,
  0xaca49799b0a4b4a2U, 0xa0a5ad9baf9db5a4U, 0xb3a2a8aca5b3a9b1U, 0x9baea0a3b5ab8496U,
  0xaf96b1aba29f9eb1U, 0x9aa2b1a7acaaa89cU, 0x97a89b9894a7a6b6U, 0xa4ada8a19fadc39bU,
  0xbda2a1b19f98999cU, 0xa9a5acaf9d98bcaaU, 0xa7b3b1a79aa1b0bbU, 0x9db2a3aca89fb7a3U,
  0x9faaa1929a9b999dU, 0xb7a99d97a5a1a7aeU, 0xaa9f9eaba1afb0bdU, 0xbda4b2a4a3ac9ba4U,
  0xa49ea9b39e9ba79aU, 0xa3b99db5ab99aaa8U, 0xa8a3aeaaac9ca2a3U, 0x9a99a39faea1a397U,
  0xa8a999aca8b19fabU, 0xad979daeaf95b3a8U, 0xaaaea4a39badb3b8U, 0x96aabdaf96afc5b3U,
  0x9dafa0aea6aaa4bbU, 0xb0a5a7a5ab99b199U, 0xa1aba19d94afa0abU, 0xaea1ada7ada3bca4U,
  0xa9aa99a2a0b4a0b1U, 0x94a499b1aaa6879aU, 0xa2a59a9eafa5a8adU, 0xabb7a9a9aba3a99aU,
  0x939e9f939b9c9caeU, 0x9e98b2a99d9ebaafU, 0xa0a7a497ad9ab1a1U, 0xa997b1a3a89eb9adU,
  0x9bb3a9a995a299b4U, 0xa69ebdb2a397a2a3U, 0x9bb4b0b295b2b4a8U, 0xa193a2a3a3aeb3a3U,
  0x979d9ab0aaae9cbdU, 0xb38ea7a89796b1a2U, 0xa29fafaeab9ca4a0U, 0xbd9fb3a3ab98b99bU,
  0xaaa2a79f93a29ebdU, 0xbf9faf99b396ae9eU, 0xaea7989296a0a68eU, 0x9fa89e99a7ae9a94U,
  0x9a99aea9a6a6b5a0U, 0x9da8b5b29ba5ada1U, 0x9ba8a8959c9ba491U, 0xbfaba6b09fadafa6U,
  0x9faca593adb2b3b5U, 0xa196b5b1ab9aa19cU, 0xa99da9aeafa1aaa1U, 0xa3979ca69698ad9bU,
  0x8ba8af9598a99ba6U, 0x99a896aba4a69da1U, 0xa498aba49fb29eb6U, 0x9791ac9ea895bc99U,
  0x9aafa69e9aa89499U, 0x9595a3aaaf979f95U, 0xaaafa8afac97a9a3U, 0xa393989396959cabU,
  0xa499a8a098a7a897U, 0x91a7959599a5ac93U, 0xa992ac9e90abaea4U, 0xa3969a919dab9f94U,
  0x93a69fa2aaaf9697U, 0xae97a5959898a4abU, 0xa5a1ac9594a2a993U, 0x9d9998ac919aaba8U,
  0x91ad9d9e99a296abU, 0x9fa196a99297a896U, 0x9e9ea998a1939499U, 0xa196ad95a2a49291U,
  0x9d96a4aa98969fa6U, 0xa79998aaaba7a9a1U, 0x9d94a7a090aaadaeU, 0xaaac9d979dac989eU,
  0x929c91a9a0ae96a3U, 0x98a5a29eae9ca39aU, 0xaaaaa1a0a9919fa6U, 0x9891a9949a9e949dU,
  0x9bafa094a099a6a9U, 0xa3a3a198a6a2adaaU, 0xa1a9949592afa595U, 0x9f9ba499a599a09bU,
  0xa7a8a5a096a49f9dU, 0xa2a694a0a5929498U, 0xac9ea0a4a9a0a9acU, 0x9faa93979d9dac93U,
  0x99a4979c9c9c9598U, 0xa4aa919497a1a796U, 0x93a49c98a6a5ab9bU, 0x94ab9da6aa97a49bU,
  0x94a9a495a4969896U, 0x9999979da2ac9a97U, 0x919f95a2909e93a0U, 0xa893a3aaa59b92a0U,
  0x9497a7a6949697abU, 0xa695aaa7a8a9a8adU, 0xa092ac97a7a2a096U, 0xaea3ac9ba2a4a297U,
  0xabaa95a0aca0a0a9U, 0x93949796aaa2a6a0U, 0xa3a6a399979ea99eU, 0xa4a79d9fa3aa93aeU,
  0xa992ada69ba897a1U, 0xac9e999eaca9aaa2U, 0x96a7aea6a09aa7aaU, 0xa49398a6aca29199U,
  0xa8929aa794aa93abU, 0xa4999bac949da6a7U, 0xae99a49da8ab9fa6U, 0xad97a4adada2a696U,
  0xa598a2ac939d9ba6U, 0xa1979fae9b97a293U, 0x9fa896a7959694afU, 0xa59e9e91aa979993U,
  0xaba6a7969094a899U, 0x9dabaa9bab969ea8U, 0xa89f9598ada7ad94U, 0xa39d9da599ad99a2U,
  0x9ea9a19da69b9994U, 0xa398a59ba298a3a0U, 0xacaba4a6a19e9e96U, 0xaba799ad9596aeadU,
  0xa89597ad9497a2a0U, 0x9bafa6a391a6afa4U, 0x939daa979599a4aaU, 0x9c9c92abaea791a9U,
  0x91a8a09b9da4abaaU, 0xa39c9296aeaba4a7U, 0x9f9f9daea095a3a9U, 0x949792989197929bU,
  0xaaa39b9ca293a69cU, 0x9597a79992a9a592U, 0x97ae9fae98a4a0abU, 0xa3a8ab94a399ae95U,
  0xa7969d98ada8a39bU, 0xad9b91979998ad9fU, 0x9eabadafa0a9afa7U, 0x969ca29c959194aaU,
  0x95a9a998a8a8989eU, 0xa4a5a9a6a898ad99U, 0x9bacad9aa2ab9fa1U, 0xaa9893a39caaac92U,
  0xad9e9d95a1a5a1a6U, 0x96a199a49aa4afa1U, 0x9691a9a790a3a693U, 0xaba299a8959f9c97U,
  0x9393ad959ea4a394U, 0x9d96a7a5a4a89e96U, 0x9cab92a193a99dacU, 0xaaa49a96a59ca7a3U,
  0xa8a4a79491979e95U, 0x9fa8aa9895a2a5afU, 0x92a9a5a193a0ada8U, 0xaca291a4aa9dafaaU,
  0x9ea8ae9b97a8979cU, 0x9f9493a2929a92b0U, 0x99939f94a29e9e93U, 0x9999a7ada8ac98a2U,
  0x9d9ca8ac90ab979eU, 0x92aea697979ea4abU, 0xae94aba099afafa4U, 0xa899afaca89eae93U,
  0xaf9a9c98ac9dae9cU, 0x9b97afaaa0a1a6aaU, 0xa0a6a2a5959a9ca9U, 0x9aa6a69795b09d96U,
  0xab9d939a929996a1U, 0xaf9995adacaea09bU, 0xa5a6a6aba595aca9U, 0xa6b0a1aca8b5b0b0U,
  0x959e9e999595ae9dU, 0xad9aa1aaaba99ea5U, 0x9e93a7ad90ab979fU, 0xa79aaba8aab0a9a8U,
  0x9ba1aa9ca3a996aeU, 0x91a9afa8a69d959fU, 0xa09c959fa3929b97U, 0x9e9397adaba0af9eU,
  0xa1ab92a99fa3a6a6U, 0x9ea6af9faca8a39aU, 0x9ea89aaba8aaafa3U, 0x9da79b9d99b6a097U,
  0xa0a2ab9cada69cadU, 0xae9baba1ab9e9da0U, 0xaa91a09c9ea1979aU, 0xada594929bada7a1U,
  0xa0a897989696aca9U, 0xaca59e979f9b9e98U, 0x9f9f969e9794a1a8U, 0x9e959e9492b6ada7U,
  0xa4a69ca899ae9692U, 0x9c9fa5aa939d97aeU, 0xa6a89797a096a7aeU, 0x9f9897a699b49397U,
  0xaf9993af9ea09297U, 0x9b9b9c9aa6a89296U, 0x9ea799a6ab999aabU, 0xa19e9ea4adb395aaU,
  0xada3999a9ba3a49bU, 0x939c93979bb595a6U, 0x9ba8a992a3a9a798U, 0x9d969a9c97a69ca8U,
  0x9ca39dad9d9f989bU, 0x95a0a9a3ac9bad98U, 0xa1a1a99ea093a9afU, 0xa79aaba5999da9a5U,
  0x9aa0a89daaaca4a4U, 0xa1aeafad9c9da6abU, 0xb3aea89aa2acaca5U, 0x9aa09aaca1a6a1a4U,
  0xa4a0ab9b93a19babU, 0xae9ea4a2ad9f949aU, 0xa8a895a493ae9b9fU, 0x9295aca69aaaa198U,
  0xb197a0a19799a4adU, 0xa99ca8ab9ca89dacU, 0xa899919191ae9396U, 0x9297a1a19da7af99U,
  0xaca1a297a9ac979dU, 0xa7989891a6a896acU, 0x99919c97a9989992U, 0xa6a19aaa9ca39da7U,
  0xac95ada9a99aa9a1U, 0xa2979ba0ad9e99a2U, 0xa0929d9792afa89dU, 0x92aba69ba6b698a3U,
  0x969e9e9fa2a997a3U, 0xa1ac9293a8b2989eU, 0xa793a1929694ac99U, 0xa797a6a6adb59592U,
  0xadada49ba6ab949cU, 0x99a3a39f9cb59599U, 0x95ada5a39093a3a2U, 0x979c99aba699a6abU,
  0xaa989c9084ac99b0U, 0xab98ab937b829189U, 0x86979695a19b9caeU, 0xa7be9ea788a4b1a0U,
  0x8eaa8f7d9497ac87U, 0xa68c92a09badaa9bU, 0xa993a6889da4ad9fU, 0x9f87af9d96a6a496U,
  0x94ada58c9e99a49bU, 0xa089b0a9a3afb3adU, 0x9ea29e9aa89d9d9aU, 0xaa829b9e979da6a6U,
  0x9e99a58facaba38dU, 0xb482a3979ea0b497U, 0xae989b9b9da5a48eU, 0xa79c9d9aafafa79dU,
  0x9897a196acaba09eU, 0xb093aaa7a098b4b1U, 0x9ba38fa4a5a7a8a8U, 0x9d94ac95a998c4adU,
  0xa09a8fa3a1afa69aU, 0xac9eb0ada7929f9aU, 0xa3a0969aa6a0a09aU, 0x9e92a0949797a9adU,
  0x9c95a9a3959597a8U, 0xae9a9e8ea89fb39fU, 0x999ea3999c959ca3U, 0xaa9caa9caca59facU,
  0x9caa9aaba3a7a8abU, 0xa18c9dae95acb897U, 0xb0948eae949da5a2U, 0xa79aafafa399b7b1U,
  0x96918e959fa6a593U, 0x9b99a0aaa295b4a3U, 0xa7a999a9a4a49aa1U, 0x9c9db39890acc6aaU,
  0xb1a5969e96ac99a4U, 0xaca4b293a4a2999cU, 0xb2989aa2a499ad95U, 0xac98a5a1afadb4b1U,
  0x9c948eaca4a59f99U, 0xa595a097aea8abacU, 0xa192a3b48fa89ba9U, 0xae9697a297b0d0a1U,
  0xa59c9e9da6a8a9abU, 0xa8afb2aa9a9db6a2U, 0xb2a89da496939aa5U, 0xaaaf9f8d9daca8a0U,
  0xa399a2a09ba1a19bU, 0xa99ba19ca599a698U, 0x95a6a3b195979ba1U, 0xab9097a7aca9b9a3U,
  0x9ea099aeab9e9f96U, 0x9a999dac9c9ea198U, 0x9d969ca993afa8afU, 0xb4a5b4a2a399bb99U,
  0xa59ca2a9a79bac9dU, 0xa0ae999aa599bbadU, 0xab97a89bafa5ada1U, 0x9fa0ae99979899a8U,
  0xaca7989ca598a3adU, 0xae9ead9daba8a299U, 0x9c9e9b9c9992b0a3U, 0xa9b3b2a59d9e9e9fU,
  0xae9ea5b5a8a8a4a0U, 0xb1a997909e9fb197U, 0xb49b9aa1afa7b092U, 0xa5a7a09e939ea9a9U,
  0x9ba69cb2a596acadU, 0xa59aa8a094a7aeb2U, 0xadaca5adaf9696a5U, 0x9dafa498a495baacU,
  0xaaa88eb29d99a4aaU, 0xb4a2999dada7ac99U, 0xa19693a19b9c9eabU, 0xb5b2a7aca4a8a19bU,
  0xad9791b69da99fb3U, 0x9aa39ba199a69a9bU, 0xb0a39c999eabaf98U, 0xa2b6a09c99abb5a4U,
  0xb2aa98b0969faab0U, 0xa3b3ae9daaa7a595U, 0xa8a19fbba796aa99U, 0xb1a1af9caa92a2a8U,
  0xafa5a5b6a0a5a593U, 0xa7a598b0aea0a3b2U, 0xb096a5af9498aba4U, 0xaca0afa2a6a0adaaU,
  0x98a7a6bcaeaab0a6U, 0xb0a29f93aa9498afU, 0xa5a39bb3a194ad96U, 0xadb3ad9297aaadafU,
  0x9ea2a69a9e93ab9dU, 0xad9faaae97a7879aU, 0xab93a9ab9faca8a9U, 0xa8b5a89c9fb5b5b2U,
  0xa49c9d9a9c9cada3U, 0xa1a89aafad9cc7abU, 0xaaa5a1b5a5ab959eU, 0xa2ad9caeaaa8a19bU,
  0xa2a594a5a8a2a49fU, 0xa8b0979ab39ea2a2U, 0xbb9790a29b9699a8U, 0xa0ac999ea7b3a1a9U,
  0xa0ab94a991a895a1U, 0xb29e9f99ad99a6aaU, 0x9d9ba1a39a99a5c0U, 0xa4b290af9baeb7b4U,
  0x869e9ca790a7a6beU, 0x9b97a2a4b1b1bc95U, 0xc6a499b799a5aac1U, 0xb49d939bbd9bb7c2U,
  0xb4ae99a2a0aa93b8U, 0xa2a194a4999bc4a5U, 0xba91988e90a8abbdU, 0x7ea49799a8ae94acU,
  0x96a89eb296a794b0U, 0x98a98fa3a0a3a3abU, 0xb392a5a89399a6b5U, 0xa3a4a59ab6a6b6abU,
  0xb6a58dae90999bc0U, 0xa3b7a2b4a8b8c0b1U, 0xae9e8fac9c9babbbU, 0xa6a1949cacb082a5U,
  0xa3908f958da9aac0U, 0x94a3b7a0a59b9ca4U, 0xaca998978f9d94e2U, 0xa597a1b1ac9db7afU,
  0xc0aba9b78fab96b9U, 0x9da8afaaa9a0afafU, 0xb0a6a09b92b097deU, 0x8f959aadaab5b3b5U,
  0x9b989da594a4adb4U, 0xa0a79aa19d9ca6a1U, 0xa896a4b09f9aa5baU, 0xb49a9e9da1ad9e9bU,
  0xb1a1a7bb91af9eafU, 0xb1bb909dabadaaaaU, 0xb2949ea597a9adb7U, 0x8c9fa899a9af9bb0U,
  0xbb9aa4af9996a3c0U, 0x9ea2ac98b1a0af91U, 0xbd9a91a8979d9dc1U, 0xb1afa6ab9cadb6afU,
  0xc098a8a398abafe2U, 0xb3a4bdb695a5c0aeU, 0x98a88fac8c91b1cdU, 0xb99aa7a4a3abb1a0U,
  0xabad9eb8959f98aeU, 0x91bc96af9dae9695U, 0xc399aba98ea7aaaaU, 0x9da4b29baa9c939dU,
  0xa490a38486a399b6U, 0xa396b0969b9dad9cU, 0xa59b9a919f98a3c0U, 0xa59db99ba695a1afU,
  0xaa9a94919095adccU, 0x8d98b6b78897a8a7U, 0xa5ab949385a09da3U, 0xaa889ea0a895ad96U,
  0xb390a9a7a3a2a1ddU, 0xa58cbfa48f99b5b4U, 0xb2aca197a5afa7aaU, 0xb49abaaa97a1a1a4U,
  0xa29f99b58894a4bfU, 0xa9a9a1b2b3949e9eU, 0xa38f97959a95af9aU, 0xa3aba7a0aaa288a5U,
  0x9392a38e9c9c99bfU, 0xa8a7b1978ea1a3abU, 0xa5ac969c8f9ab09bU, 0xbc9fa09f99a1a0afU,
  0x9ba6aaa08e96a5cdU, 0xa79db1a5a5ae8b91U, 0xa39aaa978c9497b1U, 0xa69b9eb0a39bb0b0U,
  0x7ea097969daba393U, 0x9c9e9fa58da694a3U, 0x9dad92908d9fa5c8U, 0x8c9bb99a88a1bb94U,
  0x98a2969d98aba79fU, 0xaaafa991999f979bU, 0xa79ea89e9b999f9cU, 0xa4949596939aa0acU,
  0xa7ada2a7a4ab95a1U, 0xa1a4a69cada5a1a1U, 0xa0a59b9bafabad94U, 0xa993ae9b9eaba2a6U,
  0xa1a1a7959f98af95U, 0xa0aaaaac99a198a7U, 0xabaead99aa999695U, 0xa9af93a9a8a49aa2U,
  0x939f9ea7a69d9292U, 0x9f97a5959f9e9f9bU, 0x9c93a29897a6919fU, 0xa6a3a09c999393acU,
  0xabac9c91a7a0a1abU, 0xa0aeab9d93a0a9a9U, 0x9da7aa979fa598a3U, 0xada5989f9aacaf9bU,
  0x94a8a7a0a292a891U, 0x969c97a09c9facadU, 0xa8979cae9298a5abU, 0x96a198a2a294ad9bU,
  0xaca2a0a49da09d9dU, 0xabaea29ca4a8a7abU, 0x969fae9da99c9f96U, 0xafa7ac93a9a69facU,
